/**
  ******************************************************************************
  * @file    mnist_data_params.c
  * @author  AST Embedded Analytics Research Platform
  * @date    Wed Sep 21 08:56:37 2022
  * @brief   AI Tool Automatic Code Generator for Embedded NN computing
  ******************************************************************************
  * Copyright (c) 2022 STMicroelectronics.
  * All rights reserved.
  *
  * This software is licensed under terms that can be found in the LICENSE file
  * in the root directory of this software component.
  * If no LICENSE file comes with this software, it is provided AS-IS.
  ******************************************************************************
  */

#include "mnist_data_params.h"


/**  Activations Section  ****************************************************/
ai_handle g_mnist_activations_table[1 + 2] = {
  AI_HANDLE_PTR(AI_MAGIC_MARKER),
  AI_HANDLE_PTR(NULL),
  AI_HANDLE_PTR(AI_MAGIC_MARKER),
};




/**  Weights Section  ********************************************************/
AI_ALIGNED(32)
const ai_u64 s_mnist_weights_array_u64[3239] = {
  0xbf5f3730bf354351U, 0x3f48c35fbf4dbdf6U, 0xbe42bfc73e9a315bU, 0x3f156ea63e474fb8U,
  0x3ea847333e99321aU, 0xbf10f3e83f1cbd14U, 0xbda03e823eeb8e3cU, 0x3ed87432bef7f41dU,
  0xbd59a8b73db5ba1fU, 0xbeaec0efbe5e31cbU, 0x3d41a77fbd47856fU, 0x3d833a3f3de65d11U,
  0x3d55765f3d50bceaU, 0x3e34bb3fbe5f5f8fU, 0x3dfb559dbd7723e3U, 0x3d9727413e0b3c47U,
  0xbdfd62363e448662U, 0x3e3ecd2ebd1f562aU, 0x3e8d152d3e5eb988U, 0x3d1508bcbd04a23dU,
  0xbd01509fbeec446fU, 0xbc96e969bf2b8071U, 0xbc9b1e60bd812a1dU, 0x3e50b3f03d842033U,
  0x3e49565b3da001e2U, 0x3dc22a433d5bcd75U, 0x3d06ea79beb389c7U, 0xbe1676883d6d1687U,
  0xbec037ffbea5804aU, 0xbe9240813e4812b8U, 0xbeba65533e5b8980U, 0xbf26a32c3dad09f1U,
  0xbe8d6364be16af13U, 0x3db50551bdbf2ebbU, 0x3d9826a6bd8c7a9fU, 0xbe822700be504f57U,
  0xbe4d0d643e3f1835U, 0x3ea5fb393eab0585U, 0x3e5959db3de73de6U, 0x3e447f30bea17145U,
  0xbe1b56e6bec31d5dU, 0xbe2f4a6dbdadc96cU, 0x3d23306f3e70dc26U, 0xbf7e22843e12be16U,
  0x3dd5c048ba683958U, 0xbc89f58c3e840f8cU, 0x3e45b87d3ec7aa43U, 0x3ee235013f02d50fU,
  0x3e3df70f3ea12800U, 0xbd8ce0b63e7955caU, 0x3e2bf92b3df56346U, 0x3dac70e83d9da170U,
  0x3dec2e2cbd47f95cU, 0x3e1bfd9bbe40ebd9U, 0xbe74afe33d4b95eaU, 0xbef59c55bdfd7d02U,
  0xbe3d9ac6bee96e10U, 0x3db1c319be0a8ef1U, 0x3e98c9ed3d53e616U, 0x3e28914d3f0c1f64U,
  0x3e1967933ea3f373U, 0xbe578bef3e3e125eU, 0x3cc2afd03d30c8fbU, 0x3d38c1f3bea6121fU,
  0x3cb3c8a73e955cdaU, 0x3e86016c3f1eb1ccU, 0x3d531dc5be5df835U, 0x3db3adbbbf0304a6U,
  0x3ee47d0abf024c27U, 0x3bf4dcd0be6ade94U, 0x3eadc646be08f35eU, 0x3e40d7e03e836213U,
  0x3ec1d7143e9ee9f1U, 0x3ebba48f3e4229faU, 0xbd4785fc3d73c0edU, 0xbdfd65143ba3fa4aU,
  0xbea4f52c3e2c49d8U, 0xbeb0a185bcc3a31cU, 0xbd13b4f93f0c8e36U, 0x3f57a3543f34bd8bU,
  0x3e544dabbdc13a50U, 0x3ddc3c68bef82086U, 0x3f12a4513e66f2e0U, 0x3deab3ccbe1ab2d2U,
  0x3d628e1a3d7e3eb6U, 0x3e8745303d54bde9U, 0x3eca0a8d3f0c15e1U, 0xbcf2f6803e9f385bU,
  0xbd75ddcebaa6c2f5U, 0xbe6cb8383db63550U, 0xbec8360bbd021d0dU, 0xbea01829bea8eb58U,
  0x3d96a2e53dcad6c7U, 0x3f2eafe33f6ceb1eU, 0x3e07e7cf3d641cd8U, 0xbd838ec73c452180U,
  0x3da680bcbe1be20bU, 0xbef636d03defd827U, 0xbe2a2c313f057933U, 0xbe8454093f5be830U,
  0xbe07ad3f3f80bb03U, 0x3ec08d3f3ee9b48cU, 0x3dc322cfbd919984U, 0xbde4109abecf3216U,
  0xbbf13d53beb0b2d7U, 0xbe851170bcc91aefU, 0xbe8459bf3d9a56f2U, 0x3e03358a3ed3b922U,
  0x3df3514d3cca3ac6U, 0x3d3fc5713e95ea32U, 0xbe2523663f312777U, 0xbf3062243f08f250U,
  0xbf3e77f83f1ae24aU, 0xbefa085f3fb2aeceU, 0xbe5e03953f8833b1U, 0x3ea1e72c3f1389d7U,
  0x3f0a4c0fbbc4ca9eU, 0xbe18040ebf4f0520U, 0xbdcbea55beb2c858U, 0xbe88b2363d90ae2bU,
  0xbf16d2443eaad4ecU, 0xbe4800e13e707e97U, 0x3df7b047bd2519e8U, 0x3e1033533c4b762bU,
  0xbed99b093def4647U, 0xbedf40053f052806U, 0xbf1d4dc43ee56fd1U, 0xbeba33a93f7b8edbU,
  0xbda2276f3f1d5b9cU, 0x3f0107733d83291aU, 0x3ebd33babf0634f8U, 0xbdde968dbf11f4d5U,
  0xbd9769c43c2f2ab1U, 0xbe25968f3f467efeU, 0xbea7b41e3e920ff1U, 0x3dd231f63ec02ed2U,
  0x3b4393d03b38e40fU, 0x3e99ae0a3eb055c0U, 0xbe8b4fc53d8c1f2bU, 0xbec2d91d3f30f3a3U,
  0xbe76bc523eea6211U, 0xbec812c63ecc2c83U, 0xbeb18e7ebdc4e540U, 0x3e1eecfcbebc5accU,
  0xbe8f3ee73e2861e2U, 0xbe47a0a7bd874ec8U, 0x3e29ffef3e5c7f0fU, 0xbd8a0d773f228939U,
  0xbe8042b93f745556U, 0x3e714bb03e9709acU, 0x3e55a6fe3d20edd5U, 0x3e55d5f03eaa4328U,
  0x3be70cb13d762be0U, 0x3f02ad443f0aabb7U, 0x3c6560e43ef546c5U, 0x3d2edec13e983b64U,
  0xbef767fbbe0b7d78U, 0xbedb01bebed149abU, 0xbdc1d3cabe90dc93U, 0x3ec4d70c3e8083c6U,
  0x3e83a4f13f1a7844U, 0x3e44b91a3f9bbf89U, 0x3e41991b3fc41f41U, 0x3ea50a2d3e4fbe02U,
  0x3dc8b2e63d58d4a8U, 0x3e5568173e64a5bdU, 0x3f1fe178be78cd89U, 0xbe1339ee3d5b5b66U,
  0x3dce0d263dd630c0U, 0xbd0084b53e722149U, 0x3bc751f5be80f4bbU, 0x3e7659d9bee54e8aU,
  0x3eaafe31be0dc708U, 0x3eec34f63e971f92U, 0x3e80b9e63eff5468U, 0x3cfc86c73fb94e10U,
  0x3f5fb86d3f8fbbe3U, 0x3eb6c4d33e28d1c2U, 0x3e5015093cd02feaU, 0x3e41397a3c489656U,
  0x3dd57ed4bcfe9222U, 0xbecb09dc3e339d52U, 0x3dcc9e0f3e7b146dU, 0xbd00d13b3e158e78U,
  0x3ea30ba63b9010d0U, 0x3eb574a33d8e63cfU, 0x3e801de83eca41e1U, 0x3e9dd1993eb8a18eU,
  0x3edd0f62bdc3ebb3U, 0x3f24e93c3e63f51dU, 0x3f7f664d3f107d22U, 0x3e365b74bc522ca4U,
  0x3d834af4bd097503U, 0x3b95c9793dee21abU, 0xbcbf02b93d37e1fbU, 0x3eccb2c8bc6c40b3U,
  0xbddae0cf3e493e70U, 0x3e0161c33e423eb2U, 0x3d9f4a573e568c3dU, 0x3e84e9b33d3691e1U,
  0xbe8edf103dc2c02eU, 0xbe4957463e5f3066U, 0xbe172cc23e225eb7U, 0x39e0bc75be979239U,
  0x3e526c56bd8f3f27U, 0xbc5d2c733d12b4a5U, 0x3c53f533ba183d35U, 0xbdd2a83bbd942f63U,
  0xbb369cd7bd387bbfU, 0x3dc21cfb3d85e8b4U, 0xbda84f0abe1e9195U, 0xbde6508fbe42a4fdU,
  0xbd764e5b3d278105U, 0x3d34ff263df9bddaU, 0xbe1a93f5bc7a36d1U, 0x3d119f013ec49231U,
  0x3d4e7efe3ee6309aU, 0x3d5ec7be3e16dfccU, 0x3d36a3a2bd864824U, 0x3ddbaee1bccafb3eU,
  0x3c150ba53dd7d1f8U, 0xbd5017cabd58fa26U, 0x3cb83880be6674e7U, 0x3d1ec74cbe8cd884U,
  0xbd63886bbf020d1aU, 0x3e67b620beecbf86U, 0x3e806aa3bda9ea4dU, 0x3e0f994abec1d9c7U,
  0xbf33a5dbbec9be5dU, 0xbe84f4c23e6e4969U, 0x3ee5e4943e59c867U, 0x3d0fb02b3e07b556U,
  0x3e89e2793c82d41aU, 0xbd7204b4be90a251U, 0xbd8b7d7dbd09356fU, 0xbd5b8c6c3d880449U,
  0x3d1bfcaa3f1662c7U, 0x3e4eaf603cd780dbU, 0x3ef0f390bf196ef0U, 0x3f554e15bf64d223U,
  0x3f5e36e1bf75dc73U, 0x3ec1e8b4bede2ae9U, 0x3df80d26be51646fU, 0x3eb7ba82be4cf36cU,
  0x3e76ece93e3f489fU, 0x3e9d9dac3e8c9f66U, 0x3e5010393d0e0695U, 0xbe0430bc3b046663U,
  0x3daace7e3d9cd21aU, 0xbe46a7303ea91583U, 0x3f6e9c8cbe4e3cf5U, 0x3f5fc108beb590a0U,
  0x3ea5190ebe580607U, 0xbdd2773cbf5cf0a6U, 0x3da146c1bf9fddbfU, 0x3f28bad3bf3dc217U,
  0x3df23eedbe65c0beU, 0x3e95f1d6be17b43aU, 0x3e3d804e3e4a0becU, 0x3e4ddee13e661da8U,
  0x3e95faf83e5129a8U, 0x3d87d9303d91bd5cU, 0x3cc178db3d6bacdeU, 0xbd3c1fa3be78a0b0U,
  0x3f5d94083cf4b372U, 0x3e171749be3252b8U, 0x3c730c2dbf0cb18cU, 0xbce4d12ebed0dcc6U,
  0xbe39be5ebf198558U, 0x3ef38144bde41e4cU, 0x3eeb81c1bf2d2bc0U, 0x3edd75b9bf154500U,
  0x3e8183e7be2fb154U, 0x3e195465be9355ffU, 0x3d5704cfbe846a8aU, 0xbe0e3ceebeeafcdbU,
  0x3da5a8243d3aee37U, 0x3db70fa2bca8a7daU, 0x3eacb946be50c750U, 0x3e05b1d0bf341ad0U,
  0xbdc2f450bf166b6bU, 0x3d7fa3d4be6cc906U, 0x3d85b193be91fafeU, 0x3e98c4ebbf09afb5U,
  0x3f36c84abe8b437fU, 0x3ec20bbdbe4e6e05U, 0x3d97e38fbe297f49U, 0xbe157e933e158e12U,
  0xbd0f265fbe8ab080U, 0xbeb76d30be9e0bb8U, 0x3d0b42e53d99464bU, 0x3da174bd3da356a7U,
  0x3e2338f8bc42ad0bU, 0x3ebcd986bf256433U, 0xbd2da949be79f3aeU, 0x3b9a0c24bf06420aU,
  0x3ec5c5aa3e3574bcU, 0x3f13c37e3e35ad29U, 0x3f1bbe6abf1951aaU, 0x3e77d816bf127459U,
  0x3ed541aabdff1915U, 0x3e9345873e498c88U, 0xbc1d16e6be0d27efU, 0x3dd6863b3db04c67U,
  0xbdcb966d3da321adU, 0x3dd1b0aabe7fab44U, 0x3cd2ed5bbf00a58dU, 0x3ee1deadbf229ee9U,
  0x3ee30a18bef023deU, 0x3e9a5d7dbbc689b5U, 0x3f2b25443ee8e2a5U, 0x3f2f7b143e4f8cddU,
  0x3e2e278dbf445811U, 0x3eea4d3bbf00d93cU, 0x3f1038ddbe9e8bb2U, 0x3ec43aa7be88f405U,
  0xbda9ec09bdb8cceaU, 0x3ec178683e5b7622U, 0xbd50b4dcbd7c7768U, 0xbcfc7c743e91e9deU,
  0xbe84c7ca3dbe5814U, 0xbe8af1e7bf0a2adcU, 0x3e9b4917bf071c7dU, 0x3eb038febeb02729U,
  0x3f46d73abe7875e2U, 0x3ecc7683be1b6d0cU, 0x3e524f3fbf9b0c3cU, 0x3e29fb89bedb82e6U,
  0x3f0620f83c50be9dU, 0xbdbb51cc3b8c063aU, 0x3e5e446b3f0f1cb8U, 0x3e95fa8abe008022U,
  0xbddedbf83caf0a4bU, 0x3d708e993eb0039eU, 0x3d69f32cbe5abbc3U, 0xbe0b0e28bf167b77U,
  0xbe63bb55bf005493U, 0xbe4f36cebe5ec833U, 0x3e898ec0bd8f2c27U, 0x3d67cbbdbe83f34eU,
  0x3d5b2d91be5c0c20U, 0x3dd76edb3c58cfb1U, 0x3d4128da3e43e71eU, 0xbe9844be3eb0b572U,
  0x3e17fe843ea84c85U, 0x3ea08def3e2f1d64U, 0xbd2619e7bdb64056U, 0x3bf723953b71c75aU,
  0x3d29f63d3e8a4286U, 0xbee46eabbc968c92U, 0xbec41e053d3adf15U, 0xbefcecacbc869165U,
  0x3d8b0ad4bdbb13aeU, 0xbdebba0bbda31e00U, 0x3deed3433e42189dU, 0xbb8263833ead8399U,
  0xbe27a1d53ed98b67U, 0xbe8eb5a93efb0eadU, 0x3e8875053ed62be1U, 0x3e6ebef73eb045a7U,
  0xbddee13c3dd47354U, 0xbdd3474e3e10d191U, 0xbd051470bc5595a2U, 0x3e171db8bdd38773U,
  0xbdc324cbbeaea8e2U, 0x3e92df91bec9e7f9U, 0xbc332720bf13e2b9U, 0xbdd05e94bddf20e1U,
  0x3cf993383f618427U, 0x3da04ce13f3c45a4U, 0xbe3943623edb3f84U, 0xbd8ab630bc1dd572U,
  0x3e853833bed9069cU, 0x3e5b9cb93d371dddU, 0x3d8c0d543c37508bU, 0xbcfd6a01be16a011U,
  0x3c4fabb33d4e3dccU, 0x3e0702d8bf3c3a16U, 0x3dc02635bf68cae8U, 0xbdeed188be47e08bU,
  0xbe0b93a73e8b57caU, 0xbe796a4f3e7fd880U, 0xbe5645f5be107253U, 0x3e9740dd3e6eefe8U,
  0x3dea509ebece452dU, 0xbe4f5a483e4328a9U, 0xbeccaef63d0f4137U, 0xbd287b74bb8619e6U,
  0x3d182596bdc45376U, 0xbd4c7ec6bc56c77dU, 0xbdc0cbce3e153632U, 0xbe52b2be3d190650U,
  0xbe5b37213da03a75U, 0xbf065fd53d974bb1U, 0xbf32ec093e73199dU, 0xbf66c5493d883a75U,
  0xbf49823f3e71e3c6U, 0xbe3138b33e5078feU, 0xbe99d5173d7d08e6U, 0xbe877ca3bdb131b2U,
  0xbd9976d1bcb0b9e9U, 0xbd6ea9433d6837b6U, 0x3d658a7a3ddba291U, 0xbd63b57b3c320e2bU,
  0x3c689115bc5ad8adU, 0x3d2548da3e9bc0f0U, 0x3e45cb8f3f2e9ac3U, 0x3d8093553f4edf80U,
  0x3ef8570dbc849407U, 0xbe4af294beabc0bcU, 0x3e3b5e963e5b612cU, 0x3ec01b553f208310U,
  0x3d7b033e3f248249U, 0x3e79267f3f3994b8U, 0x3dd2bd103e836dc4U, 0x3da7d42abc875e40U,
  0x3e0e8ade3e01faa3U, 0x3d9bd4213e22f654U, 0x3e0885083de777d9U, 0x3ed137233e4f5a2eU,
  0x3e13f3353f0a471bU, 0x3f3130fb3ece83c3U, 0x3ee625093d49e80aU, 0x3dd86d6a3db80a72U,
  0x3da18e973db9c94eU, 0x3ea0bb983e96b814U, 0x3e2fe46e3ca63e33U, 0x3eb19b423f07a702U,
  0x3edd28453c2d27c5U, 0x3d45fd96be035181U, 0xbd82e870bd1aed22U, 0x3d7798e1bd57cc54U,
  0x3e3b9cf03ef4380fU, 0xbdc14f743e907b42U, 0xbd0410bbbda9065dU, 0x3edd709bbd725dd2U,
  0xbd687416be6b5b2cU, 0xbedd5e8cbd26b0bcU, 0xbe9b10663e15a4caU, 0xbda338ea3de7d916U,
  0xbda218fa3e85ce6aU, 0x3e3a004a3db4b363U, 0x3e58d8033ce459edU, 0x3e2236443ca60b97U,
  0x3e208becbdb975f6U, 0x3e5f2cb23f37a47bU, 0x3f0fd2a5be093dc2U, 0x3e6a9eeebdd108a7U,
  0xbd4db3bcbeaa3cdaU, 0xbd0525c2bed3b8e6U, 0xbdeb9fc5bef5bfd0U, 0xbe9d97b5b958cb80U,
  0xbe0d0d5f3e7a4ab1U, 0xbd4e1d5fbe1d0a7dU, 0x3e050b863dfef55fU, 0xbe2cd732bd2c5febU,
  0xbea6703ebf3c6762U, 0x3e66f597be66aa9eU, 0x3dd03ed63dff9d3dU, 0x3d0901923dfb641bU,
  0x3f623d0e3d4aee8eU, 0x3df86738be537628U, 0xbe43403bbe87f6cfU, 0xbd54caa7bf1f0410U,
  0x3c2d987ebf297d5aU, 0xbe6c0d8abf47f24eU, 0x3dc592a23e20fc37U, 0xbe73ed9d3ebb0484U,
  0xbe9c940f3dd49770U, 0xbe5439edbe15dc7dU, 0xbee18011bef2fdc1U, 0xbe4d4e73bf823e72U,
  0x3e07b5aabdbb5fcdU, 0x3de24cf2bd967fa9U, 0x3f328b0f3e1262f3U, 0x3e7195c7be52e94fU,
  0xbd37f0a6bf0ca71eU, 0x3e23b6f9bf832e0aU, 0xbe18e636bf9ef393U, 0xbe4c0296bf894b25U,
  0xbead006cbe1f472eU, 0xbecbe66abc853e47U, 0xbf117ef6be44fa60U, 0xbf01eae83ea7e355U,
  0xbeb876e3bd91d81eU, 0xbef6f2ebbf5b1c56U, 0x3cfdf7803d8673dfU, 0x3e26bf223e946774U,
  0x3c794dd53c2671dbU, 0x3ea54503bf056b48U, 0x3e653ea5beeb0602U, 0x3e93e591bf21cf49U,
  0x3ddcc4e3bf1169c5U, 0xbe94e9aa3dd66bedU, 0xbef80907be03d4a8U, 0xbea0adb8be911633U,
  0xbe891d77beb34435U, 0x3e233f68be0cc32fU, 0x3e9c33a83e6cb59dU, 0x3e49f7b53ef90ba5U,
  0x3cec2ceebd8b9ea2U, 0xbdefefcb3e56ed99U, 0x3f2cb6e9be6c3f6bU, 0x3f8faf0ebd36bc90U,
  0x3f4ffa0fbeacf03cU, 0x3f589a583d984af3U, 0x3ed566453f3edaf1U, 0x3c5365bf3f63e580U,
  0xbe72182f3efa41caU, 0xbe5c800a3cfa5217U, 0x3ee44576bd1dae55U, 0x3f3ae4e53d04d39cU,
  0x3f293c833e51174eU, 0x3f7cd30c3f8ab49bU, 0x3d87c1eabd3a2647U, 0x3d33aa32be8ad66aU,
  0x3f40e8d1bdd65457U, 0x3f0e502dbca781cbU, 0x3f3d7982bea4838eU, 0x3f5d870b3eed571cU,
  0x3e77565e3f6ae2a5U, 0xbe3d607a3f22bf0dU, 0x3e007bf23f19acd6U, 0x3f1d45143e0a6040U,
  0x3f5eff1cbe189e3bU, 0x3f493a98bac6cc34U, 0x3f17fd033e435617U, 0x3f47a2da3f1c7a8eU,
  0xbc1c526b3e5e0e17U, 0x3eb963c33f3ac117U, 0x3e17f0953f4ed78aU, 0x3e0b8c2abe5727f1U,
  0x3e926dfdbd7fd763U, 0x3eb4c6d13f04a0acU, 0x3d9db18a3eec8124U, 0x3cee0d983e500ac7U,
  0x3f1aee0a3ea777d6U, 0x3f2f1c55be5eba5fU, 0x3e9f83603dd0674dU, 0x3e9aabbb3eed8068U,
  0xbd944e3f3e2b31e4U, 0x3edead773f01fe84U, 0x3de3c7eb3e20c49bU, 0x3e60f39c3e19f04dU,
  0x3ec1d6383c19b0c3U, 0xbe936830be7ceab8U, 0xbdcd079f3c752121U, 0xbccc68963e903c60U,
  0x3e1292153eb5688cU, 0x3ed8893bbcb7eafcU, 0x3eaf0169be6197ebU, 0x3db0e517be52040dU,
  0xbda34f143e715b42U, 0xbe975f613f2f034bU, 0xbf24b3c83e7044d5U, 0xbc81d69abcb101fbU,
  0x3c739f193de9a2d2U, 0xbd1925b73d939cbdU, 0x3f22b27a3ebc6b0dU, 0xbd17a378bd7884f7U,
  0xbe41c17a3e1646a2U, 0x3ba5f5dd3eea7f74U, 0xbd8e2b943ea7a853U, 0xbee0c1be3cdb7e3eU,
  0xbf0770e5bec0f4e7U, 0xbf3f2d6e3dbad401U, 0xbf6fd818be3fc725U, 0xbf5e4df73cd73bd0U,
  0xbeb465c83e3f5d40U, 0xbcc8342ebc6b5dcdU, 0x3e08206abdb48769U, 0x3e0348933d8ce96dU,
  0x3e1066cbbe2db27bU, 0xbf3d67c7be9d8a66U, 0xbf3ba1cd3e9f7e93U, 0xbf8803483e426cc4U,
  0xbf68aa86bc98ce21U, 0xbf62432ebded94dcU, 0xbf82a9bb3e825d48U, 0xbf3a04f43edfd375U,
  0xbf4cf334be126561U, 0xbf09104bbf0a9816U, 0x3e57d18a3e705af6U, 0x3d93de443e0be64aU,
  0x3ce451343dcbdd9bU, 0x3dbc8142bda36815U, 0x3d5eff29ba4527e8U, 0xbf37c4473e146b3bU,
  0xbf9dcd833e06306dU, 0xbf3e7bbb3cbdf179U, 0xbf460ccf3e226a57U, 0xbf086d5e3da04be5U,
  0xbf18bbfebe5cc7f8U, 0xbece6383bc22e247U, 0x3c937d083e08af57U, 0xbe89fd233dcf5071U,
  0x3e67ed6e3d93931fU, 0xb9d34b663d876843U, 0x3d909ea63bb54972U, 0x3e28d7463e154c39U,
  0x3c9ce7633e36f46fU, 0x3e12b61d3f1707f6U, 0x3e47184f3d95b07dU, 0x3daac62bbddc0f0cU,
  0x3ed665573eadeb82U, 0x3de37b7e3f14bb90U, 0x3ddc56b03f282bd1U, 0x3f05a4ca3f74f21cU,
  0x3ed025fa3f4210d0U, 0x3ef6e6083f5d48bfU, 0x3df013ee3d87a3bfU, 0x3dd83ab23ddb1c8bU,
  0x3e381d813e0fe337U, 0x3db1b0953de8c422U, 0x3e80fbcf3dfe50a0U, 0x3f0829d4be58284bU,
  0x3e4f6167be8c5cd4U, 0x3ea4af11be44d74aU, 0x3e54cbc0bdbe1585U, 0x3f0c1c0d3cbfc7a2U,
  0x3f1205843c622d60U, 0x3ecd7a523e6cc752U, 0x3f3c2eef3ed13480U, 0x3f14558c3f1752d4U,
  0x3ee1ee5e3f28b266U, 0xbe0d32b5bbcad227U, 0x3cb242d23da190c9U, 0xba56ad96be47b844U,
  0x3f0416eabe9b10b7U, 0x3f2bb755bea2b59bU, 0x3f00fb3cbef48095U, 0x3f30765cbec7a494U,
  0x3d6b5a29bf211ec3U, 0x3b92af74beffe89dU, 0x3ee7fa20bcb3f977U, 0x3e822ad0bdbec1b5U,
  0x3ede54f93d90b74aU, 0x3e157e8f3e8e30f4U, 0x3ebf769a3f3f3500U, 0x3f037a9a3f4c1c0dU,
  0x3e23371bbcdcce9fU, 0x3d4039fabed50bbeU, 0x3f1d982dbf5b4ba3U, 0x3e511eb3be73de14U,
  0x3f265014bd5e572cU, 0x3f0f5892bec9927aU, 0x3e953feabf0dfe94U, 0x3daa958bbf3bf5aeU,
  0x3e9f250fbe93e4feU, 0x3e234e9cbd29ecb9U, 0x3debc28b3e24c5a0U, 0x3dafec3f3e7f2c77U,
  0x3e3db1733e9eefd7U, 0x3f3f06c33f2c6c5eU, 0xbc99acc43d6efcf8U, 0x3cd2e9b8be865c65U,
  0x3f54c44dbf17757aU, 0x3eb4fd3dbf584948U, 0x3ee4e39a3dc2a1b7U, 0x3ecfcd5dbc588b86U,
  0x3e979592bea7f93fU, 0xbeb61e02bf1a8542U, 0xbf057eacbf41d932U, 0xbeade4803e27e132U,
  0xbe5f422c3f320328U, 0xbe6327f53edff062U, 0xbee65cf23f06aaf6U, 0x3ee846263e92adfbU,
  0x3dcc7b083d48bc55U, 0xbdd14139be653a55U, 0x3f1e66fabf4b0d03U, 0x3e52f1afbea8c003U,
  0x3f10a61f3da2051cU, 0x3e8e94773dbe0854U, 0x3e5f64583f100563U, 0xbde365853f63daa4U,
  0xbed576dd3f156cebU, 0xbf6811e43ec5cf3bU, 0xbf7ae6213f33fed1U, 0xbf3fefe33eb25f2eU,
  0xbebe77f33da01653U, 0x3c9356febdeadbf9U, 0x3dd1071a3d954971U, 0x3d2cef6fbdabf9f9U,
  0xbe3073b4bf8f0e11U, 0xbe235866be19619eU, 0x3e3ecb55be1d6ba3U, 0x3ea3b0033e425605U,
  0xbe00df993ea64b48U, 0xbd5db9f53f6e87f9U, 0x3e411b7c3f5ab9a4U, 0xbf15a69e3f36d176U,
  0xbf7eee163ed381b7U, 0xbf0654ca3efbde71U, 0xbc98c294bc824fbeU, 0xbeb7ca07bf236ddeU,
  0x3d02952b3be235b4U, 0x3d201ca3bec59324U, 0xbf597e6bbe427e90U, 0xbd81231b3e47f253U,
  0xbde7488cbead84fcU, 0xbd3d5bf93c9faff3U, 0x3ea379b93e5d9a6eU, 0x3f2111013f177badU,
  0x3e862ff43ed270d6U, 0xbeb1dca73eccfd67U, 0xbe093dac3e10e48eU, 0xbd542e973d70e736U,
  0xbe7ade89be934eefU, 0xbdf241263df0c9b1U, 0x3c2aa697bc9a07c8U, 0x3d8ffc21becdcc6bU,
  0xbe2bc89bbe36cdfdU, 0xbd7760c1bc37c3c9U, 0x3e31d2efbdb2e4fdU, 0x3ec387a8bec7e178U,
  0x3ef3cae0be57dd5bU, 0x3f305d823eaa27fcU, 0x3f0637553ed85f44U, 0xbbd28e4e3f2b6ee1U,
  0xbe21e8e23e9e6869U, 0xbe7183ed3e1dfa91U, 0xbe52b95d3ed6507cU, 0x3dd8507b3cf0cb26U,
  0xbcdd694f3e5fdda4U, 0x3e8cfed2be22d455U, 0xbe1330d4bed3db13U, 0x3e7a632bbe27b63fU,
  0x3e8a47533bb77700U, 0x3ef82880bcd14789U, 0x3f21683bbe8d7574U, 0x3f22b17bbe1f35f8U,
  0x3ea378553eeb8edaU, 0x3e51b2de3eeb6bf0U, 0xbeafb1373f04ea95U, 0xbea51c4a3d4e828eU,
  0xbdee9b95bf012958U, 0xbd803eba3e4dfdf7U, 0x3e300fc93e26ef83U, 0x3e3be2bcbe178dc9U,
  0xbe0bff1f3ec0a5f7U, 0xbf41bc62bd888269U, 0x3e7d01283dd5191aU, 0x3e9242aebda3d9bbU,
  0x3e82e2ec3d7cda63U, 0x3e2986e33c7b1a1aU, 0x3ecfb5883ecb6487U, 0x3d064ed53f2b94a7U,
  0xbdf246dc3ea04d18U, 0x3e093c89bcfd164fU, 0xbec2fd4dbf192876U, 0x3e9c47613e6cd068U,
  0xba480c913d349078U, 0xbd93336c3c7470ecU, 0x3ece1782beb6c213U, 0x3e0a4693bf0ea635U,
  0xbdb127dd3d010d72U, 0xbd1e635dbdc1e160U, 0xbdcb21553d2eba08U, 0x3e9d75ad3e94aa73U,
  0x3e18760f3eb97ea5U, 0x3d882be53ebff0d3U, 0x3ed3530ebda41c7fU, 0x3e30f186be9fdb43U,
  0xbee4c7c6be949f24U, 0x3dcf08cebe201a52U, 0xbd0cf4af3dd80413U, 0x3dfa83f33e0412adU,
  0xbd48ffecbeb26863U, 0xbe8bb740be10cdadU, 0xbf6fc0013e8146eeU, 0xbf0e1e573dd25ab4U,
  0xbe7248353f487f63U, 0xbe23cc523f01ca26U, 0x3d59c5803d38f522U, 0xbe5ed115be3823faU,
  0x3e3e90b6bec696eaU, 0xbe18712ebe397687U, 0xbe2425b7be43eeb6U, 0x3dbd1d063c5a69d8U,
  0x3e544a1bbc6511f3U, 0x3e444c543e63d21dU, 0xbe377f273d8e4a4cU, 0xbe5a76bc3d1931baU,
  0xbe7e053bbd3a9953U, 0xbe9341963c62d14cU, 0xbe35a3303e29df2dU, 0xbf3be46f3da237afU,
  0xbed9352ebce74478U, 0x3e16e2323ca89f02U, 0xbe4958ca3bec2a3bU, 0xbe2652cebe821b48U,
  0x3d6c34363e56974eU, 0xbc85d06f3d5e156cU, 0xbcc70b49bcb7c0d8U, 0xbcd6c5533e27b402U,
  0x3e167e76bc6d93b5U, 0x3dc1f35b3dbd1062U, 0x3d66fe4d3ed45164U, 0x3c42fed93cfd91b6U,
  0x3dd562903eab91a7U, 0x3e045a693e3461b9U, 0xbe5cb844bf125e76U, 0xbcbcdf583e902eb5U,
  0xbc6330a93edb0c03U, 0x3e82f16b3e9ebe3eU, 0x3dec3df63cacd935U, 0xbd9679c83ca00080U,
  0x3d56efde3c783458U, 0x3d317bd73de9ee6eU, 0x3daefc383e95d6bfU, 0x3e50ec373e56ee24U,
  0x3f09878cbcfbcd51U, 0x3e9a687bbed74a94U, 0xba201036be4dc769U, 0x3f33a3633e0f208aU,
  0xbcf067af3d6b9204U, 0xbe1ce1573d36aefcU, 0x3eb8bdde3d86187cU, 0xbed6a767bf414986U,
  0x3dde90633e01890fU, 0xbc918ee03df4c523U, 0x3be416e7bd5e33d2U, 0x3db0e00a3e062262U,
  0x3ec792c03d01c629U, 0x3f05f76cbef79b98U, 0x3f488392bec7d345U, 0x3e1d00613c2b4578U,
  0x3e4e8e1b3d9536dbU, 0x3df32ab3bd22d595U, 0xbe42f2a53d73aac3U, 0xbd90f1303da652fbU,
  0xbde605a33b8cacd8U, 0xbe0e9d5dbe39057eU, 0xbe2d5652be073e52U, 0x3e83d9173eb8a825U,
  0xbd0c903b3d64e55fU, 0xbd6a1ee2bd9d8673U, 0x3df3bf7cbf8027c9U, 0x3e6584a2be425d37U,
  0xbea0f443b9310e40U, 0xbf020d9e3e35ce2aU, 0xbec544d03e60417bU, 0xbf10f3f93e684b19U,
  0xbe83bbc43de8c192U, 0xbeb58d4e3e38f57dU, 0xbded4d653dcac83eU, 0x3e5f9da9bc916fabU,
  0xbf115e97bf311096U, 0xbe791e73be11ba0fU, 0xbd2a925e3df8c83cU, 0xbc77d4eb3ecaad25U,
  0x3c8bbbb3bdf464c6U, 0x3e7befaabdcae507U, 0xbe898d1a3d954507U, 0xbe9459203d0b5d2eU,
  0xbef23f103caa42bcU, 0xbf217151bb737c0dU, 0xbf10a67f3ea400e8U, 0x3e8ad3003ecd43c2U,
  0x3eadb72c3e78e09fU, 0x3edd11473df8f3deU, 0xbdbc50fabeec50baU, 0xbec157a1bee4c4e5U,
  0x3ceb3f28b9e3cf56U, 0x3dd936cd3e9f2beaU, 0x3eb6e87c3e36fc67U, 0x3e7387b1be46947fU,
  0x3dfbd314bf3fe80cU, 0xbec51c8fbda5ffa8U, 0xbf14f3e63de03792U, 0xbf9340893ea1c8c7U,
  0xbe212bd43ea9fb52U, 0x3eab2af43f0f87d0U, 0x3f08019d3ede5460U, 0x3f15f8f7bdfb3f1fU,
  0x3e977a9fbf124d30U, 0xbeb8b7f7be723ae9U, 0x3dd353b8bbc6cc7eU, 0xbd078e493dd6aca0U,
  0x3f31d5383df96116U, 0x3f0859c5bef337c9U, 0x3eca5292bf090715U, 0x3e151031be3a31dfU,
  0xbf4e46133ea4c318U, 0xbee4d0523dd47d72U, 0x3f1896f83e9b73dfU, 0x3ea512b83d95dfb6U,
  0x3e3f39a0bb874227U, 0x3ee2ee93be384138U, 0x3dd187c4bf04d55cU, 0xbea3192fbf09c547U,
  0x3de22a9abc7328dbU, 0xbd3534f1bea6abc6U, 0x3ea35a40bdf45e56U, 0x3f0a9ee8bf1257bdU,
  0x3ea61146bea07a3aU, 0xbd368be93df82c13U, 0xbe8d73e63d06b88aU, 0x3f0434babe475303U,
  0x3f2419f3be0fec85U, 0x3e633956beccc444U, 0x3dc7552ebf155a6cU, 0x3ecdba7ebf22af1bU,
  0xbd2222dbbf3c47b4U, 0xbebcf561be74dc21U, 0x3dc8d0b63bd98769U, 0xbdf26fb9bed0ec72U,
  0xbddba9abbe3a1b92U, 0x3e63075abe707619U, 0x3ed463943e27f2d1U, 0xbe8749773dc0476bU,
  0x3e6105d9bed9e1a7U, 0x3eca51e1be827001U, 0x3e92ff5cbe9f3a9fU, 0x3e34c8d8bf28e9beU,
  0x3e6930acbf2d99e0U, 0x3ef82e2dbf4c9f13U, 0xbee74f8abf3a6fb8U, 0xbde580c9bb59f960U,
  0x3e142a853d4d1765U, 0xbdef424dbe1e1cdcU, 0x3d8f1d303e2ea683U, 0xbd7c8c243e69200eU,
  0xbf08237c3e14c311U, 0xbe986cd2be18e372U, 0xbded6dddbe9363daU, 0x3db7b10c3d80f96bU,
  0x3e15993bbd91bc5dU, 0x3d7d0fbabf7a22b7U, 0x3b27907abf0bbeb1U, 0x3cbcf513bf35534eU,
  0xbf318617bde5e788U, 0x3ce8d6343e14e982U, 0x3e1f970b3d55174eU, 0x3b208494be70d7c1U,
  0xbd29a64c3e0ad844U, 0xbd19b6fa3ed632efU, 0xbe624e4b3db32799U, 0xbee9d0743dd64cd8U,
  0xbe82bfaebf0f071aU, 0x3dd56f40bf016910U, 0x3d91f4c2beff57ecU, 0x3837c440bf7a2296U,
  0xbe89764ebe10af2fU, 0xbeedb127bd903965U, 0xbeb4dc41bdf5454eU, 0x3db5ea17bd61dee3U,
  0x3e1b12733e0be299U, 0xbccd44163e2890fdU, 0xbed5a9d93ec66dd8U, 0xbd7a398d3cf81227U,
  0x3e537570be6a8d87U, 0x3e700398bec1ef3aU, 0x3eb01bddbe82659fU, 0xbdc06822bf1a5f29U,
  0xbe30ee9cbf5ebf06U, 0xbf0322d3bf3fca9cU, 0xbe660b06befb4c0fU, 0x3d452dfd3ec2e78eU,
  0x3d9971f73e95302fU, 0x3e050bbfbd8a88e1U, 0x3d8875e83daba294U, 0x3971a2353d316eb7U,
  0x3ddd8eb23ee55b9eU, 0x3f8141423f646b50U, 0x3fa8c5783e2fb699U, 0x3f5d55d4bf28cb49U,
  0x3f19cb17bf329407U, 0x3ea5be69bd7e67a9U, 0xbdc6b724befa0fe2U, 0x3e6e1d8ebe13eec8U,
  0x3f13934cbd858deeU, 0x3f4d69b43d8064cfU, 0x3eb783893dca66c0U, 0x3c396c373d7023eeU,
  0xbcf0508f3a97cfc3U, 0x3e0725073d5ae646U, 0x3e2a91043bd5ae9aU, 0x3f4a19b23cdb89dfU,
  0x3fa3fdee3dd005a6U, 0x3efcc41dbcfab8f1U, 0x3ee6cdeb3dca067cU, 0x3f3438c53cb5e1d5U,
  0x3f1ada803e58f70cU, 0x3f59ca7c3e829fabU, 0x3f5bc8693e3c46f4U, 0x3f3c25e43eb49b0eU,
  0x3dfba8a63e1e913fU, 0x3d0239a9bbdc9d8aU, 0xbd3e9703bcf74fbfU, 0xbdeab136bd91a7e4U,
  0x3dff080ebd970a03U, 0xbd2fc48a3e8a5663U, 0x3cd431b33f3939b1U, 0x3b0df2c73f31a8e1U,
  0x3e1a3dd33ecef38fU, 0x3d1781403eebffafU, 0x3e458c793e37e4ecU, 0xbc64b2c13ce90199U,
  0x3dbfe1083ed989ddU, 0x3e2d55d73ea1a2afU, 0x3e075eec3beafe5aU, 0xbdb15e51bd844270U,
  0xbd4c2bb23d439d3fU, 0xbd97eaafbc371525U, 0x3d6e93503eb3beb5U, 0x3e92bb743ebff709U,
  0x3e66318d3f220a35U, 0x3e4c61413ef40ef1U, 0x3ee5bf873f046c66U, 0x3e98e76a3f0c89dbU,
  0x3e9fdf003e8c0b5dU, 0x3e2e3e4cbd819b2bU, 0x3d44e1623e821de7U, 0x3ebe98c7bd527976U,
  0x3e0d343cbc417729U, 0x3d9215bebd5ac8a8U, 0x3dff9734bcc8f10bU, 0xbdce830bbe2d0efdU,
  0x3e4bdf903dfaf75aU, 0x3e0f10eb3e36d925U, 0x3dc5e3543efb80e1U, 0xbebfc5403eb50615U,
  0xbe4fa8493e9ec09dU, 0xbe68177e3ee857d4U, 0xbeb764483ec0a2cbU, 0xbeaacfd33ec4d908U,
  0xbd576fe13cac9e62U, 0x3dc54f8dbeac2554U, 0xbe9b20fbbea43616U, 0x3dd749db3e1cf935U,
  0xbd8633e4bc8a7556U, 0xbdc8dae3bd32e10fU, 0xbe8029943e10a42eU, 0xbf46b60b3e4ac3f0U,
  0xbf05bc0bbd0fa098U, 0xbf2ac2883d9d9e5bU, 0xbdcca7c73e4a55a4U, 0xbdb6e7463e91d7deU,
  0x3d1dd0e93e6d868fU, 0xbeab96b03d289b7cU, 0xbda88e53beac7899U, 0xbe7115c5bd5b53b9U,
  0xbe2dfb8dbee17467U, 0xbdfeffefbe8556b6U, 0xbca367cabd5b5937U, 0x3d2a01b73da37839U,
  0x3ef6336fbe0338f8U, 0xbe68c0db3cec6e74U, 0x3df33f0bbebe4cf7U, 0xbe08d4733ea597daU,
  0x3cc5362a3f2b8f95U, 0x3f0b3fd63e5bd5cfU, 0x3e5637cf3e341ea1U, 0x3cb2ecb0bd61aa35U,
  0x3de4cc8ebd9de08eU, 0x3e176201be22dbe4U, 0xbdfcf193be447ff1U, 0xbf0768bcbe11ea29U,
  0xbde7d1f8bdfaf20aU, 0xbcc053fabee3ac32U, 0x3f0b85653d896c1cU, 0x3eac5868be168a9cU,
  0x3df17cd5be8fd55cU, 0xbd0fa0bebd954676U, 0xbe81ac523e8aefd0U, 0x3ebeb0743de36970U,
  0x3c0bf2333eb11db7U, 0xbd4a6bb7be0e2db4U, 0x3f1445f6bce36d14U, 0x3f0ed1e0be43999bU,
  0x3ec896c43e516957U, 0x3e98f9a93ed593d7U, 0xbd378aa73d862611U, 0xbde09cb3be0a2b97U,
  0x3e45e96ebe6a339bU, 0xbe4cf6e5be9c9506U, 0xbeec7096bd7d5886U, 0xbeafc1dc3f135c26U,
  0xbed7982a3ecc82b8U, 0x3e441a133eb77cddU, 0x3ea399a43effa6d9U, 0x3e6093e63e868082U,
  0x3e792561bdb6be53U, 0x3f3177f6bec69622U, 0x3f7199e43dd163c0U, 0x3ee7982e3dc95195U,
  0xbdeab7e0bd07c21bU, 0xbdc5d8083d016146U, 0xbee64241beebceb6U, 0xbf0955e4be11b324U,
  0xbee3236e3dfda29cU, 0xbebfd23d3e9f8555U, 0xbcbc8a8d3e86489fU, 0x3f1feb413ebedd65U,
  0x3f0dd0483eedd43dU, 0x3e756c373e679ff2U, 0x3d6926ed3e16c8c8U, 0x3e39ea493ecef064U,
  0x3e545f293e746aa2U, 0x3efa24f23e9cd66cU, 0x3d3a26703c0ecffdU, 0x3d38b131bbb71804U,
  0xbeb1f677bf05c3d9U, 0xbdba124abeaeee0aU, 0x3dd48052be9ecb35U, 0x3eeabaae3d904d02U,
  0x3ef5b5a3bd62bb0eU, 0x3f74ccebbda7f131U, 0x3ec5f8413da2cb19U, 0x3e62bfd6bdf3c80dU,
  0x3c49f1833e897db2U, 0xbe2090913f088129U, 0xbe0656fdbd7e7df9U, 0x3ee6e3593f22a150U,
  0xbd5a0079bdd4b3faU, 0xbb08d69dbdd0097fU, 0xbe896ed4bf0bdd52U, 0x3eecc90fbef76b21U,
  0x3ed8fcc5be522497U, 0x3f295df2bdaeac4bU, 0x3e794d8ebebab93eU, 0x3e2a746ebe890626U,
  0x3ccb72a33e276314U, 0x3ec3e3283d8ec298U, 0x3da991ad3e89e66eU, 0xbea5561c3e570536U,
  0xbdef38903ebac6e1U, 0x3dffe11d3e6747fdU, 0x3d25ad18bd432cd9U, 0xbe3d1ecc3e771b6cU,
  0x3f162517bf03bf1bU, 0x3f1b3fd7beb7d32aU, 0x3eac1d413e17b487U, 0x3ec8ebf23dec50e5U,
  0xbdaf18b3bddc9c95U, 0x3e2e0deb3e5f4be0U, 0x3dc3e35bbc2bb778U, 0xbdf2af20bcd654f0U,
  0xbda6bfd2bdf1befcU, 0xbe89c22c3cfc4f49U, 0xbef9aa4e3d180333U, 0x3d8c16e13e8ea9e9U,
  0xbd846f9abacd12e5U, 0x3de1dd65bea2da33U, 0x3e30d4b9bea5982eU, 0x3e12def4bd47269dU,
  0x3de56fbe3ec27ff7U, 0xbe9747063d913432U, 0xbe409cdebd938d5bU, 0xbdfab9643e30e21aU,
  0xbe85e1edbe638bceU, 0xbe011a8d3e5d00e9U, 0xbe396a843c298e25U, 0xbe7cc2443f0857b2U,
  0xbf0499a63e811e92U, 0xbd44070f3e9cf6b5U, 0x3d9638473dc956c3U, 0xbd8fa2b23db7292fU,
  0xbe2433383d99861aU, 0xbef2701f3f1153b4U, 0xbeb4f12c3ef04196U, 0xbf299fcf3e0dc310U,
  0xbf1b7197be451060U, 0xbeec542abed44061U, 0xbe991c0b3df17889U, 0x3c9954073e93c5e8U,
  0x3eb2396f3e9fe22fU, 0xbcb0eb503c0ef0efU, 0xbec17b15be1a7154U, 0x3d9b9cffbcc0fed4U,
  0x3dbc3ed53cc68fceU, 0x3df18de23e0f6d11U, 0xbe75ca4a3e004233U, 0x3cb2ea223d16de07U,
  0xbe9446a4bc2c84b9U, 0xbd6d8bf23de7e022U, 0xbe3a28603d13b48dU, 0x3d6d0d043d711af5U,
  0xbd9f593b3e0c6744U, 0xbe49bb453e63741fU, 0x3e97a3563dab823aU, 0xbe4d68a73c43c1b5U,
  0xbe0fd528bd8c02f4U, 0xbbea26863da5ed73U, 0xbe01fd3bbd9781b8U, 0xbd7f64b63cc69e50U,
  0x3d2aada93d787cf3U, 0x3d7745b0bddc75fcU, 0xbd5a5b03bdee6306U, 0xbe1bb2f23eb995c9U,
  0x3ddecb753f79775fU, 0x3e21a9c23e0d90b8U, 0x3eafd0f43ea7724eU, 0xbd6215aebe3e695fU,
  0xbd85d40ebbf0a6fdU, 0xbd91635d3dd6a094U, 0xbd772996be0b8c3aU, 0xbde5818e3dc21415U,
  0xbc5f90293d970f6dU, 0x3d4050163dba9882U, 0xbcfa7540bf20c603U, 0xbe480451bcd594dbU,
  0x3d18d6ca3f0bd9e9U, 0x3bf482e03f172db2U, 0x3df73cac3ee171a2U, 0xbb08b95c3ef53645U,
  0x3ed35e4a3f168875U, 0xbd1f1b5c3e9544c5U, 0xbf0f5ae9bd228e2bU, 0xbe001d63bf3979d2U,
  0xbeeb9f2cbf64e375U, 0xbe581ffebe07e51cU, 0x3cbd3c073d9eee50U, 0x3d5768b2be35c31cU,
  0xbe916d49be825eb5U, 0xbed1038cbf1359afU, 0xbf31eeebbe914179U, 0xbef0fe4d3d86f372U,
  0xbf175e933e830adfU, 0xbce803103f4a34cdU, 0x3dbb802e3f298c0eU, 0xbd8b52303ef1c630U,
  0xbe461afc3e26845dU, 0x3d6a006d3b82c556U, 0xbf11e20fbf5a0105U, 0xbe42c118bf46a449U,
  0xbc49b1b1be1f4e8dU, 0xbdbcea20bd26421bU, 0xbf377c61bf10598eU, 0xbeca5853bf0826f8U,
  0xbf1a903fbf21378cU, 0xbf1fba68be77b84dU, 0xbedea4c4be619c12U, 0xbed4fb7b3efd6a24U,
  0x3d1329fc3f4d6654U, 0x3e30472c3f300470U, 0xbe9662563e0078c1U, 0xbe7de767bd0943f0U,
  0xbea3e61ebeada23aU, 0xbf08511cbe928028U, 0xbd8017763c985948U, 0xbd3de1cfbec94e92U,
  0xbdb847a8bf32bf44U, 0xbeb2581cbf01de4eU, 0x3b55584abf0db97cU, 0x3d9bf5f0be47c15dU,
  0x3e3c0ccd3e946860U, 0xbe1491aabeff3e7aU, 0x3e88975fbd1f6d0aU, 0x3ef5723c3eba330fU,
  0x3e3cdd3bbd00432dU, 0x3e4c998ebdde37a8U, 0x3e682b2ebb654e36U, 0xbe76e584bb053044U,
  0x3d23e531bdfb066eU, 0xbc0d2210bee13ff5U, 0xbdf3f1debf591b6dU, 0x3dc8f931bea26207U,
  0x3e887118bdc48723U, 0x3dfe93e53dd1a963U, 0xbd6103833e58c241U, 0xbec90999be9908c3U,
  0xbcc58a3cbef1cae7U, 0x3e9812c4bebaf285U, 0x3f07ec87be73f7b4U, 0x3efe0a0cbebee856U,
  0x3f31f5223e413050U, 0x3e681fb0bde013c9U, 0xbe2a0d19bdf1faa6U, 0x3d207dfdbeb3e0e6U,
  0x3e00828ebd13e1c0U, 0x3b629b903ee853a5U, 0xbe2df3713eadefcfU, 0xbeb41ece3ede4a69U,
  0xbe7a87c83ebbdd58U, 0xbce0a51fbdea2408U, 0x3e5ff822be448d45U, 0x3e7b5c3cbf51c982U,
  0x3f341b7abf69be0fU, 0x3f7963b1bf7b5e12U, 0x3f4e9621bf16fd28U, 0xbdf0db7dbef7e75aU,
  0xbdb8b31dbe34e849U, 0xbe4af8b73d15aac0U, 0x3e23843abebb938cU, 0x3e53c9e0bea7d331U,
  0x3e03f5fc3e4cd5baU, 0xbdcb6aa63f0b7f33U, 0xbea9b9333e2130dcU, 0xbe278eddbea02adeU,
  0x3d6d1284bc5a5ad1U, 0x3d61989bbf634299U, 0x3d882a8dbf39d337U, 0x3ed9afbabe8276eeU,
  0x3ebb0b7dbe01cf52U, 0xbec273b3befb0521U, 0xbe151f5abd160346U, 0x3db3c38abe76e022U,
  0x3f00b81bbf0a43dbU, 0x3eaf484dbaf02148U, 0x3eb6a0a4bd9f2b3bU, 0x3e9a9ceb3e1f9f60U,
  0x3ebebf80beadb2f4U, 0x3e036787bf21ba32U, 0xbcb297b4be9a645fU, 0xbe241440beae4269U,
  0xbe6be58dbf155b9aU, 0x3dbed3be3dde9c30U, 0xbda1f8c4becbbf07U, 0xbd4dac4a3e810b66U,
  0xbe1c3c6e3de14100U, 0x3e27dc633e7d16b0U, 0x3e8967efbdbfb86cU, 0x3f341816bdd0250aU,
  0x3f33baacbe31cc05U, 0x3f4c23b4bd84245aU, 0x3ea6ee2dbe932459U, 0x3e5e9ee5bd2f2d87U,
  0x3e3cf5af3e8f7d12U, 0xbda98ef23edbc285U, 0xbeba79253ba642b2U, 0xbdc754943c76eadeU,
  0xbcb39a203e41d850U, 0xbe1268c43da87f31U, 0xbe1607463d288854U, 0xbb6cc5f1bcc899c3U,
  0x3f43eceabf43d34dU, 0x3f945700be62a5c6U, 0x3f0e4a9c3d78139eU, 0x3f01e2af3e943706U,
  0x3eca21613e758510U, 0x3e8948383ec0e098U, 0x3bfb43223e640f39U, 0xbe0da6f93ec8de70U,
  0xbcee1d5f3e9ffa0bU, 0x3d9d320fbcb1e365U, 0xbe9bd182bdb46c14U, 0xbe0004473d563bdeU,
  0xbd3bbf37bc183df6U, 0x3d513e0dbf03bf3fU, 0x3ed2ad22bf476454U, 0x3d212554bef021a7U,
  0x3ea1727b3dde5cecU, 0x3c59d9293f1523f5U, 0xbe3563573f06ade8U, 0xbd4e4ebe3ecba62cU,
  0xbe7d66da3e943c43U, 0xbec730893f391d59U, 0xbea6c2cb3f018fa7U, 0xbeba54993f202aaaU,
  0xbe9404963e748f22U, 0xbd86748c3e1fb96cU, 0xbb50f8dcbd55d456U, 0xbdb59456be12d278U,
  0xbbfb9848be08f054U, 0xbf584d13beafbed9U, 0xbea997a5bc3a9105U, 0xbf830384bb21d170U,
  0xbf1a075bbd9aabb8U, 0xbf1e1d52bd867699U, 0xbea8e5a63f694226U, 0xbe41d2763f517321U,
  0xbe206e243f77ac98U, 0x3d38e4573e2139a8U, 0xbe7f7f9fbe18ff17U, 0xbe1c67f3bdefecadU,
  0xbda8abe0bd1a2281U, 0xbd394aadbcd61301U, 0xbdd1e7e1bdafcecaU, 0xbec185a5bc22cda6U,
  0xbf071c62bd5af7ddU, 0xbeb6271ebb8ec685U, 0xbed842113cf9e6cbU, 0xbe96c94e3dbc8b7cU,
  0xbee77d2e3dce13a0U, 0xbef7cd533e304fa8U, 0x3e7a05193dd3f357U, 0xbe456f643cec50b3U,
  0xbdd07b98bdd03859U, 0x3d3dbda63cfd5c59U, 0x3c258a073d2d5a0eU, 0x3d9cae943d398eafU,
  0xbd2f1496bd2d5b8fU, 0x3a141a2ebd848211U, 0xbd898d14bdbbf48aU, 0x3bebb852be2bb62eU,
  0xbe0613f23d71c89fU, 0x3d7215e4bd3f3872U, 0xbd295229be919fbdU, 0xbdceaea2bf095fe8U,
  0xbb18c8dabeda00cfU, 0xbe2078d4bf15947dU, 0xbde115483cff9451U, 0x3db3a8a53d80a1a9U,
  0xbba833b23d9e8233U, 0x3c9d55cfbd3364caU, 0x3c5234bebea399efU, 0xbe36d47dbe15ae74U,
  0xbeb7f6e23dbae7cfU, 0xbf120c4c3d6a2f0fU, 0xbe25e7bb3c0035b9U, 0xbf3f34b1bde199caU,
  0xbf2c75e03e59360cU, 0xbe8822d33e7bcd5bU, 0xbecb0cca3e489bb7U, 0x3df2584abdbe5005U,
  0xbb956b6d3c9f475dU, 0x3c692955bd743b9fU, 0xbcfa74c3bcbebdd9U, 0xbd482a4cbec81e73U,
  0xbdf1b880bdc1dcc8U, 0x3d26dc713db2ab85U, 0x3e1be3f23caf2cd5U, 0x3e920663be5db759U,
  0x3eeb3846bcefd627U, 0x3ebef287beb1eb34U, 0x3e06c50bbf28d82eU, 0xbdee19733c9c0134U,
  0x3d57c32cbd76742aU, 0x3eb1fb933f16e9cbU, 0x3dd324753e9fb426U, 0x3d2d47dbbe46b8a1U,
  0xbd9ef0493e2197a3U, 0x3d0a9a3f3ef140efU, 0x3e0d73f93ec2a445U, 0x3f121ce73e41507bU,
  0x3f82d9c33ea5e08fU, 0x3f1752603e362df2U, 0x3f74c050bde4c64fU, 0x3f6f19eabebbb2a4U,
  0x3e438d35bf0b239bU, 0x3e949465be4243b9U, 0x3c768bd7bddfa6c5U, 0x3e3822b03db9e0adU,
  0x3efc7acd3f1e6706U, 0xbdf157e43ea75c6dU, 0xbd57b7e53d363a60U, 0x3dbc937cbdf6c63eU,
  0x3e1b18a13f275464U, 0x3f2e840f3e5b1f5cU, 0x3f2114983ee38b2eU, 0x3ef26c883e591474U,
  0x3f3120aebe734378U, 0x3e8b0372be95075fU, 0xbc7db737beb157e2U, 0x3e51f3eabefd20bcU,
  0x3e9d8689be647a29U, 0x3eb317da3d63bb62U, 0x3f17a131bdc6b676U, 0x3eb902893f035126U,
  0x3d7bdc2a3de343d0U, 0xbcdce69d3e4eeaf7U, 0x3e7360103efe5dd9U, 0x3e6a0bb23f0c8592U,
  0x3e9bb5453e48cd87U, 0x3ede0382bcbfcd0fU, 0x3ee2c12d3dfd2a95U, 0x3ed0c4d6beba512eU,
  0xbcef2239bf02a1cbU, 0x3f01098dbeb62a46U, 0x3f4493233e9a87adU, 0x3f650c6c3e304a81U,
  0x3f2283033e1fec21U, 0x3e85dab33e8bcf49U, 0xbb48f8c8ba31a6deU, 0xbe320c43bba67f83U,
  0x3e23c71a3e75e50fU, 0x3d448f7cbbffa736U, 0x3dcb2ad8be5f70ecU, 0xbddfba3f3db4ea6bU,
  0x3d7a398dbe45bd33U, 0x3cfd0331be8e35a2U, 0xbe82ae4abec991c4U, 0x3edd0226bdc43331U,
  0x3f0f719a3ecfbec4U, 0x3f6f5d8abc39e03cU, 0x3f1aceecbc9f9d6eU, 0x3f312f673e0a79faU,
  0xbe153640bbf2860dU, 0xbd96b8563f126096U, 0xbd277feabe43c133U, 0xbef2c708bec388c1U,
  0xbf008913bdffb33aU, 0xbf1ffee3be15e8f1U, 0xbe5d4449beec9442U, 0xbe18cdc73d6ea5f7U,
  0x3e0ffc593e0004efU, 0x3e1c036e3e92d30fU, 0xbd5ecde23e8363d3U, 0xbd2910eebe092bd6U,
  0xbef081863e811f1bU, 0x3f5cecef3f215accU, 0xbc8a70febcb32539U, 0xbd9c33d9be8875d0U,
  0x3e7f1764bf003f2fU, 0xbeb9fdf4bd190f7eU, 0xbd174dd9be4112eeU, 0x3ee77b0fbf507816U,
  0x3e799752bed73db9U, 0x3dd1263fbe220152U, 0x3d5b89dd3e9116c2U, 0xbe8f75e73ec96e0aU,
  0xbebaf7733dc53622U, 0xbf016a453ecf7521U, 0xbf3cfb573beb0fedU, 0x3ef3fec1bf0f39e8U,
  0x3db029e53e0dc2a8U, 0x3c2e324d3ea1dabeU, 0xbc4259afbf1487a5U, 0x3cf87600bf8301a1U,
  0x3ebdc5febf770cbeU, 0x3f2788a4bf4e3549U, 0x3f32ec12bf00a809U, 0x3e8c7d0d3eab18dbU,
  0x3e068cd53efaf629U, 0xbea97c413ed2ab3dU, 0xbed40fd03d7ebac4U, 0xbeb7cac53e09225eU,
  0xbe3fd50fbc6adc6bU, 0xbe5781873da236a8U, 0xbd94a789bcbd9e90U, 0x3d43b021beccc699U,
  0x3d525e9fbee72c96U, 0x3f658a04bed3f067U, 0x3f935b5fbf1771f5U, 0x3f20d4c4be35b91eU,
  0x3eaaf474be956c1fU, 0x3ec1044ebf00202eU, 0x3dee2fa23e954d6bU, 0xbe268d553eb95719U,
  0xbe5652ae3e977c0dU, 0xbd7f19273eb3f881U, 0xbe86337dbd2b206aU, 0xbe8b56493da82c66U,
  0xbdf818113d57a7e8U, 0xbb47f3e8bf2dae08U, 0xbd33f22bbfa3586cU, 0x3f3577fabf5b201eU,
  0x3f07b98cbf07c442U, 0x3e7cb718bdb42c25U, 0x3e8019853e6fe8a5U, 0x3c6c1062bd9cde9dU,
  0x3e8cc6063e3b6fadU, 0x3dde494c3e0ea111U, 0x3e075b563e83cf57U, 0xbd6470f53ed4255aU,
  0x3e4530c1bb8b7845U, 0xbe5ed420bcc40e74U, 0xbdc6cb883e17b964U, 0xbd07ffee3da60209U,
  0xbd1cd150befa4cd0U, 0xbf5d6ac4be4300deU, 0xbf637a2c3eefbcd5U, 0xbf0df945bda20fc1U,
  0xbee3e9f23e998c97U, 0xbd763e6fbea7b910U, 0xbd85b7f03eb48dceU, 0xbe618df33e232865U,
  0xbe77b2a6bb468dfcU, 0xbed8f9fb3e887308U, 0xbe99c6ecbe2b79a7U, 0x3d94bfc03d5fd6b3U,
  0xbdcd3eb43e0e0e27U, 0xbd872bf23d00e534U, 0xbecd786a3ddb4846U, 0xbf81a55b3e3bf9ffU,
  0xbf957bdc3df4f9fdU, 0xbf0f4e1dbcd093c4U, 0xbef0749bbcb7cd9eU, 0xbf09e4033d9539d4U,
  0xbf1f9fd2beb348bbU, 0xbf4c7a9fbedd4eb6U, 0xbf57ed2d3d3ccfcdU, 0xbf395cdbbe39832cU,
  0xbee3b5983d8bbb49U, 0x3c2363ff3a040373U, 0x3dce679dba0d72d1U, 0x3db36482bc8548abU,
  0x3e180591bcb64d51U, 0xbd4931a2bcc2540cU, 0xbd8af5613ecdaf78U, 0x3d9729383e90f84eU,
  0xbd45c05a3f073d29U, 0x3e2aa2823ee91b63U, 0x3dc5facabeccabd8U, 0xbe665014bf21fbdcU,
  0xbd4783c3be01b0c9U, 0xbcb51f91be84dcd5U, 0x3e2e9efb3e0cfc78U, 0x3e2a153e3c6de3daU,
  0x3c58e2f63d82e5b1U, 0x3dba427f3d72b5fcU, 0x3cc000c73edcf144U, 0xbcaa16a23f032d46U,
  0x3e2f207a3ec156e4U, 0xbea1b668bd93f58dU, 0x3e528db73e0c1448U, 0x3d26f45cbda1abe4U,
  0xbe1511b3bd43e52cU, 0xbe34d4b3bd86710dU, 0xbe1e53f4bd3298cfU, 0x3d355552beefc29dU,
  0xbd089557be6fc15eU, 0x3c8870dcbe560c17U, 0x3e2307623d88c436U, 0xbb6f90023f019ed4U,
  0xbd9d8d1c3eebb286U, 0xbdc660053e9b4574U, 0x3ea61c143e2abd2aU, 0x3eac20e4bd0a822dU,
  0x3eaadfafbc3b6cabU, 0x3dfdaf4b3d2cfa61U, 0x3de986a6be806bb0U, 0xbe3ced19beee3663U,
  0xbd912ea9be8ba5b4U, 0x3e2418dcbea9d7a2U, 0xbe6050bdbeab8550U, 0x3e2226703e9ae16dU,
  0x3cf0e7603e88f2d4U, 0x3c2bf30a3f5128faU, 0x3e22931c3f9664bfU, 0x3ee57b6b3e4e190dU,
  0x3e6d0f8b3e23289cU, 0xbd4267733e1f2c9fU, 0xbe19ccb2be81e2e5U, 0x3eddcf98bf126cb5U,
  0x3f2b6c92bf10ad3eU, 0x3ebfd56cbf1bdddeU, 0x3eaa41bbbf0b4411U, 0xbd2a765abef0b850U,
  0x3e04c134bec96cf5U, 0xbcc485d53ca19d37U, 0x3d32cfb83e3c23fcU, 0x3dcadd063f53168fU,
  0xbebc95643f161f00U, 0xbdb5a6583ef23bbeU, 0xbf2e5a4c3e9c7f9cU, 0xbeff99503e982924U,
  0xbf12a832bee7f339U, 0x3dcc656dbee762dcU, 0x3f477a7bbf02594aU, 0x3f5ce658bf5a7318U,
  0x3eea6e1dbf0536abU, 0x3f233e97bda27dfaU, 0x3e8577d33d2ef468U, 0xbe01f32f3eaa6f03U,
  0x3e0805633d02d9caU, 0x3e55dec93f176703U, 0xbf23d3173eb73d31U, 0xbf3f4e0b3e93320bU,
  0xbf82ec063e3dd097U, 0xbf900f683f094d38U, 0xbf47f3713f063dfdU, 0x3e00888a3ecbb01fU,
  0x3f0dfb64bea1c8beU, 0x3f402b79bf070ff0U, 0x3f655002bee3367aU, 0x3f7c8d7ebf0435bdU,
  0x3e60ef98bdbef361U, 0x3e59c98d3ebb65b3U, 0xbce8d80fbcd0b277U, 0x3e6a7ace3d24da65U,
  0xbeb50ac03f082d6dU, 0xbf2a6cff3e1fa829U, 0xbf5152b33e1b96fcU, 0xbf643d5a3eb7b2f6U,
  0xbf04cc413f1a3c3bU, 0x3f2236523ee3facdU, 0x3eae74b83dc42cd8U, 0x3ebec7bb3cb3240fU,
  0x3ecf838b3eb8e606U, 0x3ec3904a3eb7f892U, 0xbdacfad73df53c1eU, 0x3dc219363e3c3b17U,
  0x3df0bea83bc8a935U, 0x3e7cfbd53ece3dc8U, 0x3d6e4ef5be087e5eU, 0xbdd4b4633c3fab5eU,
  0xbdb45f3a3eba4978U, 0xbe25130e3e9cf187U, 0x3cd30bbc3f4e9177U, 0x3f3204dd3f10b9e0U,
  0x3de356d53e98a95aU, 0xbdf1ae5c3f33a849U, 0x3daf7ac83f02eac2U, 0xbd81b6d03ead24dfU,
  0x3e2676a03f178ecbU, 0x3dd561c83d37648fU, 0xbc626b2e3d280dc6U, 0x3e2c3bb13f23d615U,
  0x3ed98a963d12f7dcU, 0x3ecd9a7ebe810e4dU, 0x3ea4efb63e2dc8c0U, 0x3c3cdc09bc32031eU,
  0xbcf592f63f0254aeU, 0x3ea1bc4a3e9bbd60U, 0xbe8859df3ef0b3e4U, 0xbe95bb983f312e01U,
  0xbe24f0f73ed249d1U, 0x3c2c05d03e869502U, 0x3cab165e3d949bd9U, 0x3de48aed3dd6aa79U,
  0xbc702a8ebdb7e2c0U, 0xbe96f810be0ac96bU, 0x3ed1dbe13e0dbf62U, 0x3e97eaac3dccaf33U,
  0x3eb48b52bb0bf78bU, 0x3e474072bbec1c50U, 0xbe1e7eccbdd35ebfU, 0xbec1d58e3ddf88d3U,
  0xbe08265d3eb2bba1U, 0x3d8bac553e22ce8cU, 0xbe1fa35d3da85e34U, 0xbdad38243c81947eU,
  0xbec9103d3da6b5c1U, 0x3ce1a9de3ce22ac2U, 0x3d9708fa3dd8402bU, 0xbe7ab6b13e47d609U,
  0x3e22eb543edd1bcbU, 0x3d1266673e5b0645U, 0x3e5b396ebd73b90dU, 0x3e16ace5be095a97U,
  0xbe7870f9be459586U, 0xbe0cfb92be419e40U, 0x3e21280f3e59cdcfU, 0x3d8261f63e5d658aU,
  0xbdf013ce3de50d84U, 0xbec5d7533e0b2305U, 0xbf1f374dbf0b2f02U, 0x3d9fc258be355f1dU,
  0x3db4348b3b955ba8U, 0x3d99e659be69df38U, 0xbf3948dc3e13a31aU, 0x3f00d9613e8d0546U,
  0x3e9bf29f3bbbd555U, 0x3c21893abd27c1aaU, 0x3e6671ec3dbf6cfbU, 0x3dd874143de94ef9U,
  0xbc72ada5bd3adc52U, 0x3cb7ebf0be91a406U, 0xbdc2672fbd2accd7U, 0xbe9185f3be0b84f8U,
  0xbf218b2fbec147cdU, 0x3d2e55a0bdab64c4U, 0xbb58a9743dd24c02U, 0xbd5be1fb3ce2f06aU,
  0xbda1d00ebdf85937U, 0x3e5fc5733e4ed1e0U, 0xbde26ad43e01c7acU, 0xbe280f7b3f158beeU,
  0xbc0910103ef555bdU, 0x3e076fd33ddc48cdU, 0x3dce63e4be4f5811U, 0x3dd70aaabf046292U,
  0xbdba554dbe880e9aU, 0xbf36a9c7bebb4fceU, 0xbf05ec9dbe805bb2U, 0x3d3e963abd7d3e12U,
  0x3e1cf90e3dea7740U, 0xbc782c403cbcda3fU, 0x3d037806bd769eccU, 0xbecdde95bd5e4d11U,
  0xbef6b1e13d224663U, 0xbeccbb1b3c2bb441U, 0xbe1b971f3bccafd7U, 0xbb5cc0953d514a44U,
  0xbe905924bdaa7e42U, 0xbe3cf3d2be58d8f2U, 0xbf09e7c63d2db12cU, 0xbf026f21bd5d2eb3U,
  0xbdfea0e5bd2b7680U, 0xbd786bdebd8e6d81U, 0x3d9ef013bc9c6acbU, 0x3e0babd73d94db25U,
  0x3e716c3fbd774a28U, 0x3e809725bdef0579U, 0x3e44a8d03f05b7e5U, 0x3e1de0a23f18bd35U,
  0x3e1331463f42602aU, 0x3e8ccce23e7f3999U, 0x3ecce90a3e4329f2U, 0x3d524a9e3e1e159cU,
  0x3dc8ce8cbd3d2dabU, 0x3d5d6230bd7ca78cU, 0x3e5255113b4c907bU, 0x3d8d2d9d3d4cbc5cU,
  0x3d93df593e09aa64U, 0x3e259e403d67b080U, 0x3e2172b93db8ccadU, 0xbb64f2913e650614U,
  0x3dec7e523f344c77U, 0x3ed2a6313f75f8f1U, 0x3f0fea843effb165U, 0x3e042f273edc052aU,
  0x3de772173f06a237U, 0x3db27e323eb3b146U, 0xbe6342883decb61dU, 0xbc7b847bbe9425b7U,
  0xbdf5745ebdfc5158U, 0x3db31c793e1b7651U, 0x3e6f03c63d20da24U, 0x3e386d6a3ddf08b1U,
  0x3c89cb853f0ad91cU, 0x3dcf80f13f2692feU, 0x3c17da923f3cb5d2U, 0x3ea812373f204407U,
  0x3e3be1373f049379U, 0x3d7df5b93f118544U, 0x3cd117d93eafd4d4U, 0x3c4c981d3d5d6279U,
  0xbe8e5fd73dc01cb4U, 0xbd61cdf43e88d1d6U, 0xbdcd7f57bec77788U, 0x3da95203bdfd1cf8U,
  0x3dc257773e0a78f6U, 0x3e3ed0c03e9e8f0dU, 0x3e08092c3f4808a4U, 0x3c2ef95b3f7dd0b4U,
  0xbe7cf65d3f6d04dcU, 0x3e64ac383f8d9c9cU, 0xbe09875d3f4e64e5U, 0xbe531d9c3ed04422U,
  0xbe339b983e4ba8dcU, 0x3df3e4493ebc8689U, 0x3e14b8643de19d40U, 0x3e0a3dca3c8187cfU,
  0x3e19541f3e03c64eU, 0xbe212c303c3cfab1U, 0x3d8f722e3c69ecf8U, 0x3eb59dabbdb9740cU,
  0xbde930693e274172U, 0xbf460e863d841c6aU, 0xbf15b75b3edb2578U, 0xbeb133703f084b85U,
  0xbede66353f05adaeU, 0xbf06f1303ebda17cU, 0xbe6c09dd3ed15f70U, 0xbd3349afbe23f820U,
  0x3e1435fabe92c7f4U, 0x3e9f9fbebd406cebU, 0xbdb70e683d1be73eU, 0x3d0d7cca3e955ae6U,
  0x3e14b17a3e1e06d6U, 0x3d31a572bf2dbceeU, 0xbf1e31b5bebe7dc9U, 0xbf4221d8beaa76fbU,
  0xbe566100be69f5f0U, 0xbe789134bf35e1feU, 0xbef35f26bf876b8cU, 0xbf2f2029bf8b86ccU,
  0xbd9864a0bed9a9baU, 0x3d8d8942bee9a84eU, 0x3e6dfc93bef13010U, 0x3e9718cdbf048d0eU,
  0xbd054342bdf40017U, 0x3e9bc3973cd2aae8U, 0x3d06b5fd3e0bc702U, 0x3e60f1a83e8988e6U,
  0xbf9ebf41bd95e138U, 0xbf93d2e9be6448bcU, 0xbed3d517bf09e14eU, 0xbead375dbe856cecU,
  0xbf297db7bee18c19U, 0xbefa324cbeb2009bU, 0xbe89f30fbe907b28U, 0x3e12e7a3beb91f13U,
  0xbd1c0fbcbe52ea04U, 0x3dd5bef2becbf813U, 0xbd0031c0bea4cd5bU, 0x3ecc5bd03e55ed5fU,
  0x3cf734d6bd348494U, 0x3e2718d93ee960bfU, 0xbf4b42543f1ad7c6U, 0xbf9e22bf3ec9a249U,
  0xbf61fbfd3ecdcd20U, 0xbf1cd7663dfe8f29U, 0xbf0535d53e28f8c1U, 0x3e43c4783e8e35b8U,
  0xbc1b5db13ea8592cU, 0xbea4d22c3e7fd2d1U, 0xbea0ffe2bd808c4eU, 0xbf1067b4bd0bd1b1U,
  0xbe40a89a3ea78ce1U, 0x3e380dcf3cf8bb16U, 0x3dac7615bd988ba1U, 0x3e1dd18c3e8dc488U,
  0x3be094743f289282U, 0xbed886b53ece02cdU, 0xbf220cb33e2668f3U, 0xbe46b410bea39dc3U,
  0x3edde19d3e7d0703U, 0x3e5261393f03dd53U, 0xbe3ed1453f41d645U, 0xbedde66c3f3ee61aU,
  0xbed87b963ef808a0U, 0xbf0e41193e0f134cU, 0xbeae8a293c62bf0dU, 0x3ee6bce63f3dbe77U,
  0x3d8582f43c8655e9U, 0x3d92b12f3f150e79U, 0x3f05539f3f622b9fU, 0x3e9db24c3eed7824U,
  0x3e743bf3bca9f115U, 0x3ebf2412becc41efU, 0x3f0a65833e6b8c71U, 0x3e1e50fa3f1174dfU,
  0x3dfd90653f0d1a5aU, 0xbdb299883f2c81b4U, 0xbe8efe003e883de2U, 0xbf13daea3e3dbae9U,
  0xbdd8f04d3ec36d8dU, 0x3ebcf0a53ed5d384U, 0x3e2f6751bd736707U, 0x3dd1c5b33e0d380cU,
  0x3e7312c43ec3cfa4U, 0x3d4c885e3f3f14a9U, 0x3f6455fdbc5b2e2fU, 0x3efabf123c04c4ffU,
  0x3ea0af9fbd1121f6U, 0x3e8b6d813da9e50dU, 0x3e88f6ed3ea9454bU, 0xbe0b74743e20068cU,
  0xbe5a1e403ecf5e73U, 0xbd5570173e2d009fU, 0x3d9810283e83f580U, 0x3e1c4cf63d0af22cU,
  0x3e75499f3d71c188U, 0x3e3d200e3c60b08eU, 0x3ec297dc3e86b1afU, 0x3f5a6d883d825da9U,
  0x3f1631c53c9c183fU, 0x3dc31c393c8fbc5cU, 0x3e97cfa7bda2f600U, 0x3e88640bbe93794cU,
  0x3d769f093d17ae46U, 0x3c8e44d5bb6b01a2U, 0xbdac7c37bd47a4c6U, 0xbe223833be44d221U,
  0x3eaa029c3eac7c91U, 0x3e8c143d3e29fc23U, 0x3e1f5a9f3e0fc847U, 0x3d5d2d86bce62d57U,
  0x3e053b173e11277bU, 0xbd08cb053f06a08eU, 0xbe31857e3f29a7b8U, 0xbe87fa7b3f377aafU,
  0xbe857b6c3e57d641U, 0x3ca674a3bd330718U, 0xbc776b10be8da85aU, 0xbf0a05e93e5bf5d1U,
  0xbe88b4993ee46f62U, 0xbeb05b7cbda27af2U, 0x3e3be3fdbe72f113U, 0x3e49a96ebd8ec4c1U,
  0x3c87ef76bdaf3571U, 0x3e4b9644bda4b3aaU, 0x3db9735cbd98e28cU, 0xbe3c591bba660157U,
  0xbe44d6acbaab97d1U, 0xbf1dc4953bed49f9U, 0xbd86b4e8bd43d901U, 0xbea41d70be1f16acU,
  0xbdccf8c63c4555b4U, 0xbe9ab4a7be48312dU, 0xbc056f49be1bdccdU, 0xbc640d40be08aaafU,
  0x3e75bc3b3dae4356U, 0x3e14c72ebd86af91U, 0x3ddd3db8bcdaaf30U, 0x3ddb5f103e0de0ffU,
  0xbde8f7263bc79af3U, 0xbdb1d36dbe7adcf2U, 0x3ca09af5be7e6f2bU, 0xbdb1e6ccbf2669f8U,
  0xbe8ab1abbf4bb75bU, 0xbd969067bf5499a8U, 0xbedcd081bf8b047eU, 0x3d47ea39bf1a4f83U,
  0x3a033fadbf269272U, 0xbe932c73bef67814U, 0xbe041c4bbdb05928U, 0xbdabaf64bd0623fdU,
  0x3de342b93ded4994U, 0xbc5da1a6bdeab74dU, 0x3d2bd4e1bd358d03U, 0xbeaa9b6abe28be9cU,
  0xbe1a1a66beeefd05U, 0xbf460d12beeda452U, 0xbf14ed3dbe023081U, 0xbe99f233be83a7a7U,
  0xbec8f038bec70541U, 0xbefa8014bf0193c1U, 0xbe097a903d3db981U, 0xbcc82a683eb00bddU,
  0xbd7918143f2c4393U, 0xbd2a7c403dc31aa1U, 0x3d80e83f3e05f728U, 0xbd13bb6f3e67c020U,
  0x3c848ef0bda04a04U, 0xbe04e55dbeb57ca2U, 0x3e81680dbd64c979U, 0xbe991000bde15a1dU,
  0xbe5e5161bd4551e5U, 0xbcca0f03bea2aeddU, 0xbc37f9d0be8cd6d9U, 0xbde907c4bd9901d7U,
  0x3d43cfe3be86c123U, 0xbdbae208be395d3aU, 0xbe3bfa783d0df0ffU, 0x3e89958b3e17af8bU,
  0xbb965f6f3d2b2469U, 0xbe4150303e44851fU, 0x3f0fe2a83c6459f5U, 0x3f086244be065527U,
  0x3f0fb29bbea9d912U, 0x3e9fcb5abe11545eU, 0x3e9db945bd2b9d67U, 0x3e8cf34bbe6abea2U,
  0x3ec31df23dc02efeU, 0x3e99cdd93ea860f6U, 0x3e948bca3ea13663U, 0x3eb81b493eee08afU,
  0x3cdd52c03f32df85U, 0x3d06ff1abdc5ca84U, 0xbd586ac1bd1c47d3U, 0xbd9deb4c3ea734c8U,
  0xbef3288fbd828a42U, 0x3f36c200be081beaU, 0x3f80b516bed65253U, 0x3f2b1476bddc101aU,
  0x3ee213963e9c1303U, 0x3f033d93be0eb11cU, 0x3eeb5830bec7d66cU, 0x3ec856d8bd703e5fU,
  0x3ed29db53eae2eb2U, 0x3dfcbb8b3eb8ff0dU, 0x3e1ccf8abe0caf86U, 0x3dc959473e0fb7e4U,
  0x3d1686bd3d49d36fU, 0xbe4c075a3efac249U, 0x3e336d36be3cca24U, 0x3f07dce8be4b1bcfU,
  0x3f02665b3cf93996U, 0x3f43a04d3dd8f8a3U, 0x3f27067b3de398a9U, 0x3f2aa747bec9cc19U,
  0x3f0abc97be393207U, 0x3f1f0a7abe58618dU, 0x3e8ff3053da9cb24U, 0x3f0ba1e83ecab11fU,
  0x3edd1ef0be51a219U, 0xbf00539fbea1870aU, 0xbd88f3573cd368f0U, 0x3d8cc4aa3d15b96aU,
  0x3f075387beb3296bU, 0x3f4e072b3d844a58U, 0x3f8071f93e7e40b4U, 0x3f5e1e503f337c36U,
  0x3f8fc2cf3f018f3dU, 0x3e572bb8bcb44d48U, 0x3f212c46be0bc293U, 0x3e8eda1c3ee7c397U,
  0x3de77ab23e0c23e8U, 0x3eacba80be492dd7U, 0xbdac31c9bf2225afU, 0xbf2fb479bf44918fU,
  0xbd767977bdb464c3U, 0xbdc0111dbf11b78aU, 0x3ed9fc3cbefe468cU, 0xbc783230beb90358U,
  0x3eeb4be73ec79d34U, 0x3ec6eabb3f825ab6U, 0x3e6c5aad3f3054ffU, 0x3db1764ebe41053eU,
  0x3e8648ad3de3d16eU, 0x3e93e6823e169bc6U, 0xbe29cd26bd3424fcU, 0xbe55fdc7be8a156eU,
  0xbeec973bbef1c6aeU, 0xbedcc86fbeb2a97cU, 0x3ddff7dc3e059368U, 0xbe16e341bef10ba3U,
  0xbf03c487bd70417bU, 0xbcf2bb0fbeb04c57U, 0x3ee1fa523cd150f4U, 0x3d0748213ed0457bU,
  0xbe825bb83ece89b0U, 0xbebe3b10be7c8b7fU, 0xbe5ed9e63e47c830U, 0xbdfbf0d53e52da1bU,
  0xbf02f1e7bdfd6e73U, 0xbeac5e5dbea1b80fU, 0xbf1b1795bda4075cU, 0xbf423ccfbf50bc09U,
  0xbe041ba93d24ce98U, 0x3d902419bf280fd4U, 0x3c84292abee10f00U, 0xbe128f99bdf8af0eU,
  0x3dd2f855bde10a96U, 0x3e40c1c0bf04b40cU, 0x3cfc0eb5bf34d892U, 0x3e95ecfabe8f082dU,
  0x3e7ca27fbea0d50cU, 0xbef07779bd9f76faU, 0xbec579c0be941fe9U, 0xbe9a830bbf315606U,
  0xbe500c01be5ee2d9U, 0xbee9f7e2bf17a749U, 0x3dca455a3ccc5c66U, 0x3d1f71d9becf286aU,
  0x3e10ce71befe2bcdU, 0x3f0839e5bd1145beU, 0x3d252950bed1abecU, 0xbcd75d44bf1112daU,
  0x3edca458be593cbfU, 0x3eb18e22be8b6307U, 0x3b9c6e60bef09eb1U, 0xbdb02c1bbf2564f3U,
  0x3d3e4f73bf0198e8U, 0xbd887938be676f68U, 0x3f284477bef02b6aU, 0xbeb0bc6bbe774b8dU,
  0x3d2fbbaebd75decbU, 0xbd6481f3be35d82fU, 0xbe041380bc204f26U, 0xbdef39dc3e4e3890U,
  0x3e3eeb0cbe71b5d2U, 0x3e515a4abe9593fcU, 0x3d0b6d9fbcbd9c97U, 0x3db14df63d769ca1U,
  0x3e9e98b8bed4aff2U, 0x3e464a3b3ce1256cU, 0x3e68946e3e03935cU, 0x3f2a43173ed7e640U,
  0x3efa6c45bdb9dc4eU, 0xbe90b157bec4dd5fU, 0x3dac37053ccbf38bU, 0xbddd3b72bc5b5fc4U,
  0x3e6fcba23e956dafU, 0x3f6e0775bea3a01aU, 0x3f0fb585bf27b15eU, 0x3eeff543bf8a95feU,
  0x3eeb457dbf55b4e8U, 0x3ef397a1be44cdc5U, 0x3f19d192bd1e778eU, 0x3efcc611bf4d99ecU,
  0x3f390793beb72df1U, 0x3e886bc53ed96addU, 0xbeab71e63eb80afdU, 0xbcc6cd38bdd861d6U,
  0x3c27bbdb3d3fbba5U, 0xbd8f8a563e0c0438U, 0x3eb9072b3d61c060U, 0x3eefbd853c34c6d4U,
  0x3ed603273c37a3dbU, 0x3f682dc73dab7354U, 0x3e8741633d215bb1U, 0x3eb0f2263e073675U,
  0x3e7bcd703de99fcbU, 0x3eec3de93e06ae40U, 0x3e0d4d9e3e41fb61U, 0x3e3b4e7d3deac329U,
  0xbe71b8553b033a01U, 0xbda5a16e3dcfa1bbU, 0xbd44ed8c3d6c1f1cU, 0x3d81bcf63c28a772U,
  0x3e371af63deb0323U, 0x3d01fc843ddcbe8cU, 0xbb450ae23e878198U, 0x3dfa321a3e8ed8aaU,
  0x3c4128113df523f5U, 0xbced3ceb3c9c4f43U, 0x3e35892a3dbbd61bU, 0xbd8f5424bdf6ea8eU,
  0x3db9096a3e9f38a0U, 0xbcc15530be45232dU, 0x3de0db4b3d8b7195U, 0x3d3d03013ddf9966U,
  0xbd10bd633dbcd813U, 0x3cbe47b93cdf6c99U, 0x3d1afdcabd8371b1U, 0x3dee68c23c8136ddU,
  0xbdb71619bea293caU, 0xbd39b0a83d070c84U, 0xbe22a8da3e577a28U, 0xbe8033a53e18fd86U,
  0xbf1a3a39be20b8e0U, 0xbef0c10dbed310cdU, 0xbe0af170be52ab73U, 0xbd636755bc8542d5U,
  0x3ea218993f216a42U, 0x3c88ff163e3a2fdbU, 0x3dc4900c3e121ff8U, 0x3d8ef2713da6a98aU,
  0x3e30ed00bc9a8410U, 0x3e6faf023dc1ffd0U, 0x3f0e0a0ebe4e60d6U, 0x3f06cd2fbe998a80U,
  0x3eea58cfbf7b3f40U, 0xbe8dee8bbf371ee3U, 0x3ea93bf4bee17399U, 0x3c29d6b8bec7f94bU,
  0x3d549dafbec66335U, 0xbd5d9945be588f29U, 0x3ec1d03a3e1914a9U, 0x3e8600863ecf9e27U,
  0x3d8a942a3d4c4840U, 0x3d20d5623e9201e9U, 0x3f3c39f13d8c1be7U, 0x3f0ef7debf708e56U,
  0x3f23e862bf2f8cc6U, 0x3f259e2fbe3b1760U, 0x3f428c03bf15a9ceU, 0x3e81cc2dbf6f49c5U,
  0x3ea903c4bf03cd8bU, 0x3dd990e9be9eac86U, 0x3d82e40bbe40d5daU, 0x3d6cd009bdb63011U,
  0x3dcfee043d84ba6cU, 0x3e7706a03f1bf8adU, 0x3e342456bd634ddaU, 0x3e147d66bc9516d3U,
  0x3e5acdb9bf15f6faU, 0xbd882738bf3537aaU, 0xbcee7dd1beb2713aU, 0x3d2a1ddcbefef972U,
  0x3e8f965bbefdb284U, 0x3ea8048ebeef5e84U, 0x3ec2da15bf5496f8U, 0x3ea58ec9bf048f71U,
  0x3e1ba69a3dd15efcU, 0x3d721c973e43e581U, 0x3c45f0833cfbef6eU, 0x3ec263d9be0bce01U,
  0xbd15b9253dc86b44U, 0x3d251998bf18beccU, 0xbcbc9d4fbf03bb2dU, 0xbf38167cbdeafcfcU,
  0xbe64bcba3e5aa015U, 0x3e0fd58b3c9bc55dU, 0x3e8a4cd23d8de49fU, 0x3da70a0d3e0105f8U,
  0x3ea093f3bf1ba2fbU, 0x3ea85a61bf20a23eU, 0x3eb076a9be7e5d1aU, 0x3da3a0673dff66ceU,
  0x3e0faf943d65e828U, 0xbe4908dc3e1f7f02U, 0x3da01ad93dc41b88U, 0x3d23512b3ddaf3f8U,
  0xbf029b263de1ad09U, 0xbed37f6e3e8432daU, 0x3c6653693f13efd0U, 0xbc6dbb0a3ecdd31eU,
  0xbddd7e153f52007eU, 0x3e89229b3f307c42U, 0x3e8fff833d92cf91U, 0x3e8ef912be59bfe0U,
  0x3efb4d47bdb613eeU, 0x3d8c58543eb88e98U, 0x3d8622cf3e8dd83dU, 0x3e31f5883e76a5b7U,
  0x3d9018c9bc2ad5a6U, 0xbca499113f1e4852U, 0xbd36ffeebe8e1297U, 0x3e99384b3e3289b1U,
  0x3e6f943a3e8689e1U, 0x3d9ecba43eaa90b7U, 0x3e5df6153e679c16U, 0x3e8b87793e93757dU,
  0x3ef6f944bd97e89cU, 0x3f03047e3e9c56cbU, 0x3f00925b3ec3bbd9U, 0x3e8456953ea1ef7cU,
  0xbe7acb983e98c299U, 0x3f32c5903f8b470bU, 0x3e04d9183dd391d2U, 0x3e8c9cc13ec7e565U,
  0x3f3edf92bd1f4f59U, 0x3e78385cbe39edc2U, 0x3f1a613d3cba7437U, 0x3e6499d3bdb08db4U,
  0xbc38c8cabe5e2afaU, 0x3e18bf533c36e1ceU, 0x3eb7a711bdf9cbbfU, 0x3ece24943f2b00e1U,
  0x3b142a923ebd1789U, 0x3e2b15e33e7afe84U, 0x3d3f01a13ed6e4bfU, 0x3f69c1bb3e02b885U,
  0x3ca9502fbe0d8fcbU, 0x3e840054bca3c374U, 0x3f0212803f00256aU, 0x3d5099903e8541f3U,
  0x3e57677ebe90e8d2U, 0x3e616ccebe4d20bfU, 0xbeb06067be87d30dU, 0xbe7cd6f8becb9104U,
  0x3e05cc593e81c847U, 0xbdf6e0bf3d57f1d8U, 0xbd1eb6773e8edadaU, 0xbd1b97e13e73505fU,
  0xbd8bc2fb3e200953U, 0xbca46f413ded2250U, 0x3e1be6593e1fcb8dU, 0x3b3d891cbe276c73U,
  0xbe0d9d963e60eea3U, 0xbe31f37a3d40c0b9U, 0xbe1fc667be906fa6U, 0x3e5b27dbbe8b69aaU,
  0xbed80edcbf593e94U, 0xbf08a745bff0853eU, 0xbeae99fabfa647a4U, 0xbeb995d13df54415U,
  0xbdd3bab43f23cf1fU, 0xbeaa58b63ee72b60U, 0xbe7e5054bee17073U, 0xbe23d6f8be59631dU,
  0xbbb1209c3d72909fU, 0xbd5fb2eebcbcb990U, 0x3b624799bea4e689U, 0x3e947184bf45fed0U,
  0x3d7a24f0bfa20392U, 0x3e479b8dbfa70359U, 0xbe9093f7bf9ee5f9U, 0xbe4d33c0bf74057aU,
  0xbeb12ec4bf0bf328U, 0xbe232419beec6566U, 0xbdbcfc2f3e267a2eU, 0xbe1b6e0e3f138cefU,
  0xbe2388afbe993bceU, 0x3c9acf63be465405U, 0x3d537bc4bd303e1aU, 0x3e2f63023dfc86daU,
  0xbd16caaabdb5c21bU, 0x3e0910eabde8d7ddU, 0x3df9f8edbd7accb8U, 0xbd6d0923bdd2ab6aU,
  0xbd888f913eb95a35U, 0x3e0421bd3ea0c6c7U, 0xbcb3c2093f3c2b19U, 0xbcd147a03e414eeaU,
  0xbe60bea9bf088a87U, 0x3e14226bbde46f63U, 0x3e720f623d050046U, 0x3c6e1ebb3dd14544U,
  0xbd69c12ebd8a3617U, 0xbd7e6e43bd926cebU, 0x3c7fc2d63de26a54U, 0x3c8bfe173e08b0fdU,
  0xbdb2cfeebcb9e889U, 0x3e82cde43d9931bfU, 0xbdff2b9b3e24425eU, 0x3ca1313b3e1b9b5dU,
  0xbebfcde5bdf13b65U, 0x3d4192d03d99b825U, 0xbf08de663c828a96U, 0xbde73957be3cce6fU,
  0x3d9221f2bcb5a35bU, 0x3e0e55273e132a5fU, 0x3df393993da19c8cU, 0x3dda92cb3da27a3aU,
  0x3d9a73273d23b746U, 0x3d9f52d9be2a9ccbU, 0xbd95c568bc85d4b5U, 0xbd828266bd17faf4U,
  0xbb701c71bf62d9ceU, 0xbe9f1e86bf33747fU, 0x3dc6e6a3beda92e9U, 0x39feacadbed94779U,
  0x3d854cd2be9f0f8bU, 0x3c83767fbed4e0c7U, 0x3e0a46063e02b8e1U, 0x3e04c8f63e2aae76U,
  0xbcf9d7ae3e0dc6c8U, 0x3d41f2333de0a3a6U, 0x3cc05ad5be15fae3U, 0xbe78cbc83e7a6fb6U,
  0xbed2ee493d4bb523U, 0xbec046d53e783622U, 0xbe64a6233e0b289bU, 0xbf1111babe9fffbaU,
  0xbef2a6e0bf370befU, 0xbf3b1cdfbf75e3e4U, 0xbf399fc3bf53d2d9U, 0xbe7db819bedfbda3U,
  0xbd017a7ab9812799U, 0x3e2ec55abc50766aU, 0x3dce3da1bce062beU, 0x3dae53c63def1dcaU,
  0x3e09e9b7bde04d78U, 0xbf09e8543d819dc1U, 0xbedb31363e3ec23fU, 0xbee3cc8d3eb23806U,
  0xbde482533e167ae9U, 0xbedf12fd3d95195cU, 0xbe9d66303d57d9cfU, 0xbd37b177bd2acb1cU,
  0xbea28a66beb8ad76U, 0xbea5e8a0bed855f9U, 0xbef5de5ebf93b2e2U, 0xbe047939befa0db1U,
  0xbd0de8c03d39592aU, 0x3d292ecc3ee086efU, 0x3e883556bda6a75dU, 0xbdd4db013d83aa1aU,
  0x3f0c68ed3e116553U, 0x3e8744ab3e0848c8U, 0xbcb45f0e3e918396U, 0xbe334ae23e755d0fU,
  0xbe825a373e2c311dU, 0x3e8c38453d8a1b44U, 0x3d539ab6bde6522fU, 0xbe64854cbd97f203U,
  0xbef0dd5ebd241c68U, 0xbc00918d3e4584daU, 0xbd1561da3e8f2e5cU, 0x3e5608f43ecb9819U,
  0xbf196a613f24c270U, 0x3ee4383e3f28dfb8U, 0x3f000a043e8c62d2U, 0x3f35f2883e8fbbdfU,
  0x3dce88c53e102433U, 0xbf00a95d3e5ff22eU, 0xbe2758ab3ec972efU, 0xbe6ac9bf3ed2da74U,
  0xbcc91e30bdb33beeU, 0xbee4711cbe96f6ccU, 0xbbe02ca6be7f0718U, 0xbe710ebbbec39f3fU,
  0x3d21bc6c3d877837U, 0xbe4642423e91e9adU, 0xbedc9c183f0f961eU, 0x3d573aed3f2b06f9U,
  0xbd8afbc23f31818bU, 0x3e229b013e9b1d08U, 0x3e4bb7b6bba9a090U, 0xbe809eaf3e7dce0cU,
  0x3d041be63ea9eee2U, 0xbe0da9c23e91c2bdU, 0x3d10384c3bf1a8aaU, 0xbe6e4ca83e3143ffU,
  0xbe38a809be4d93c6U, 0xbf42fc9fbe6b1042U, 0x3e0a11953d3478bbU, 0x3e8c446c3e919cdbU,
  0x3e3ca0503eb4937dU, 0xbdc104363ef14eb5U, 0xbd99b1113e825990U, 0xbde5fdbc3ea005d1U,
  0xbc4e36423d895ee7U, 0xbf3d139ebdcc2c22U, 0xbdda341bbe2baf8aU, 0xbc86b9b4bec7f4cdU,
  0x3e788e823e08a60aU, 0x3cc6e3083e8f6c2aU, 0x3b3bb8073f0063e3U, 0xbdccdcfa3f1fdd76U,
  0x39d48e323d03b132U, 0xbcef262b3ea137b9U, 0x3f14f07ebebce119U, 0xbd98d372bb7f3db2U,
  0xbe2d8b8f3e4f3cf9U, 0xbc3b6fee3e68f397U, 0xbf5ffad53e6b1579U, 0xbf2cb4c43df39b62U,
  0xbea79cf73e8f2cadU, 0x3ec173173e0af023U, 0x3f3f7b653f150974U, 0x3f50c8c53e6e6b28U,
  0x3f3737763e8ba0c5U, 0xbf077cd0be854f32U, 0xbd2dc6d0bd2dfd9aU, 0x3e10faa6be8c5744U,
  0x3eb8870bbe5278a1U, 0x3e196a933d32e85dU, 0x3eaa95803cddbd5eU, 0x3e51e4cb3e88efc5U,
  0xbf8789253f2d638fU, 0xbe0b4ca93e6308c8U, 0xbd61744fbd14e3ffU, 0x3eaf98d2bdd1e27eU,
  0x3eb335b53c967cd8U, 0x3f10765f3eb3dcbfU, 0xbe48348c3f2f9c5eU, 0xbe63b8163f26289eU,
  0xbc93eda13d848ffeU, 0xbcc204b0bebe2d9aU, 0x3d34953cbd00459aU, 0xbe3c7a1e3b7e5c2aU,
  0x3eb27ac7be1bf812U, 0xbd9dae97be469e26U, 0xbe11f161be748ee8U, 0x3ee54af4bf1b83e1U,
  0x3e931ec6bf7691e6U, 0xbd20fdeebe8a3ea0U, 0xbead77693ddb8bafU, 0xbeb9ce373ea8d03eU,
  0xbf2400fa3e6e0e82U, 0x3eaa207a3eccd020U, 0x3c855fb53e2f93c6U, 0x3d3a0eaebf2e69a2U,
  0x3d240f9abeb6d0eeU, 0x3dbd7636beaf045eU, 0x3e49a5d13cd8345eU, 0x3e14d8ebbdb11d89U,
  0x3eed6f043c9321a1U, 0x3ea33f7cbed9d99eU, 0xbd119721bf9f2b82U, 0xbed633acbe9cf3a5U,
  0xbf194da03e2f93b1U, 0xbf448e923ec2de97U, 0xbed3f1f6be99d98dU, 0xbd5a962fbe3b0d43U,
  0x3d2e2571bd20b7deU, 0x3e47fc043cf529d8U, 0x3e3b42053ebc8d9bU, 0x3eb152d93ebf8be3U,
  0x3f625741bea8e993U, 0x3f2cb538bef39ec1U, 0x3e93ec74bdc2daa2U, 0x3d19cb01beeb01c8U,
  0x3ddb18dbbf1abe90U, 0xbebf19113e874a8dU, 0xbf6e00b33f4e5836U, 0xbf3faeee3f4d20d3U,
  0xbe30d6d33e00b118U, 0xbe32297a3e0183c4U, 0x3de31f313e295058U, 0x3d0e165c3e79d606U,
  0x3ef0870b3e3bee1eU, 0x3f8c2c9ebec12ee4U, 0x3f75e521bf4ce41bU, 0x3e410f35bf936365U,
  0x3ebafb71bf49181fU, 0x3e56ebb23ddd3bd1U, 0x3eb069143eb4d6f3U, 0xbd28d9dc3eb5861eU,
  0xbe2942fa3f52c5c6U, 0xbe7ac5d23f3a99abU, 0x3e6f15573d998b64U, 0xbcebd69b3e08ebe1U,
  0xbb9b9f97bd82e8d7U, 0x3d07bc35bd907258U, 0x3f0988b13d8b37baU, 0x3ed8227c3d989af1U,
  0x3e6a6718bd596e1dU, 0x3e84c5c73cde5503U, 0x3e489b79be09f6f2U, 0x3e1ff9d5bb890812U,
  0x3f367de73c4f56a9U, 0x3f3522a43d0cec09U, 0x3e5833163e3f64b1U, 0x3f037b7e3f12403dU,
  0xbd2f33e23e09526dU, 0xbd5a100a3d95c5d5U, 0x3e0c1e833dabcfaeU, 0x3d6df733bd52acdeU,
  0x3da987853dcb04f4U, 0x3e3907e73e1a32bdU, 0x3e85e208bedff23dU, 0x3d1fa5ebbf26ac57U,
  0x3dd29893bf22551fU, 0x3d7df9a9bee768ceU, 0xbd70d34abe4c1ea9U, 0x3ea1d9a63ee236abU,
  0x3dc5278bbe07be5aU, 0x3d790e603e1cdcf2U, 0x3e60d7bbbb1c7096U, 0x3e05e4653e1174faU,
  0x3e2d91e93d89eed1U, 0x3dbca6e93e0bef15U, 0x3dd2e0c33dfda286U, 0x3e05189ebd7fecadU,
  0x3e855d4d3e0dcfb1U, 0x3e899f093eb1e1b4U, 0x3d8c48bebd752f95U, 0x3d8ba9e83de98ad6U,
  0x3e9140893e25fa51U, 0x3d85d4323e40bf5aU, 0x3eaafaab3e409382U, 0x3e5d1ccb3ee4d93dU,
  0x3c8228ad3efdf0afU, 0x3dc849a13ebd2df9U, 0x3e2170103cf731d1U, 0x3dd06f293df7e264U,
  0x3e15a6eb3e060c4cU, 0x3e50d89a3e029cfdU, 0x3e293b263dffef1dU, 0xbd86e26cbdae4209U,
  0xbedf136c3df722dcU, 0xbdcec6303e5143e8U, 0xbe1a65e43e8ef476U, 0x3f046ea13ec1e3e9U,
  0x3e94219e3ea8626fU, 0x3e0d0ab93ea62d66U, 0x3ee2ca683f391b45U, 0x3e836daf3ef00d5cU,
  0x3d8912a53ddae61cU, 0x3e3e70ffbe4a1fd2U, 0xbe073ac43d3824b8U, 0x3e6cf18abc78ea53U,
  0x3e0d46b43dbaca83U, 0xbd4e6630be43fcdcU, 0xbd9a0bffbbd7d4beU, 0xbf004be53e8c559bU,
  0x3d5b28523ed12bd6U, 0x3df188883ee12d94U, 0x3e0fb5ad3f21218eU, 0x3cdf244e3e87502cU,
  0x3e9067be3f537ea4U, 0x3f39e5523ef86253U, 0x3cc47832bdac9bdbU, 0x3e3e2953bc0f3e8cU,
  0x3ea6b38d3d6b1530U, 0xbdd2b6ce3cffd7d4U, 0xbcae8328be8fe1b8U, 0xbe045d7dbeb04f11U,
  0xbe304d2a3e4ea461U, 0xbd845b883ec5a5f4U, 0xbe5b3eba3f1965caU, 0x3c3f7e8c3f38a34bU,
  0x3d1a4ef93f282997U, 0xbda4d6013ef48f5cU, 0x3d54db223f3171a1U, 0x3f40a8a13f33e2caU,
  0x3de22728bd760749U, 0x3e984e383e97e3f0U, 0x3e1e82b3bef97b39U, 0xbccd69d2be0ed0b0U,
  0x3e939aa2bf088ed0U, 0x3e27babb3e6ba583U, 0xbd3fbc873f0c6445U, 0x3e69d1ec3f1bcfcbU,
  0xbd8fa5353f06e78cU, 0xbd0c4a6f3f35883aU, 0xbe7509dd3f175402U, 0xbf17c68e3e3adbd4U,
  0xbe98cfb3bde59972U, 0x3f1e18b93e8c055bU, 0x3e15ac643d3aea74U, 0x3df3ee233ce80590U,
  0xbe9bc026bedddb64U, 0x3e0e4d04be8c88e4U, 0x3ed1cc3b3dab164eU, 0x3e00661c3e85450fU,
  0x3eb5a1a83f176dd6U, 0x3ed138593f4c4367U, 0xbeaf040e3f021321U, 0xbe8ba9033f17bdc4U,
  0xbf12604b3f0eb311U, 0xbf370b923ebd6368U, 0xbf2b0301be72e3e9U, 0x3caf54a4bebab3f2U,
  0x3e46baa83e387b06U, 0x3e508d01bda453cbU, 0xbebb31fb3f4e2fceU, 0xbe13eb1e3e5ba928U,
  0x3defffe1bd830517U, 0xbdcb54223e0152e3U, 0x3ed356093ebced96U, 0x3e0310be3eed7311U,
  0xbec291a53f424e5dU, 0xbebe02913f47a6eaU, 0xbf3620913ecc5bf5U, 0xbf0e4a463d041d3dU,
  0xbda2367abe1899b9U, 0x3c5b5f1cbe8241d1U, 0x3dc443fcbd07f98bU, 0xbda1493e3e7bce4fU,
  0xbe2386d53f55d021U, 0xbe85d31a3eb1f0f2U, 0xbf1f8a953e858912U, 0xbe59e7bc3f08346fU,
  0xbe298d513e685488U, 0xbef5e1f83ec08c6cU, 0xbe83cd9f3f68728aU, 0x3c871df53e15bad8U,
  0x3e28491fbeb0f02aU, 0xbc96c810bf388f4cU, 0x3ee85680bf60bf01U, 0xbf0602dbbf98c600U,
  0x3e0949003e113e66U, 0xbbaf11093da7e5bfU, 0x3c6357e43f17a43dU, 0x3e50c8243e12d551U,
  0xbd2108ca3e4aa371U, 0xbe5dce1f3e963bb6U, 0xbe7049403ec88797U, 0xbeeb30ac3eca2f1bU,
  0x3ddc3f5a3dd4d781U, 0x3e6c53adbe85fca1U, 0x3e3052afbf938e43U, 0x3f08045cbf8f78a0U,
  0x3f0f3a5fbf4a432fU, 0xbeb0f392be6c0029U, 0x3de05604ba27ff92U, 0x3e1fee713ea27a80U,
  0xbe776de8bd7bb9aaU, 0x3dc9d93a3f241b7dU, 0x3dd0af213f061e38U, 0x3e1b04bd3ec26085U,
  0xbd9c64e93ec593fcU, 0x3e4a73a6bc8e4ff4U, 0x3e697f72be03fc62U, 0x3ee077c7bf484971U,
  0x3ec8a983bf35af33U, 0x3f59f191bf419fe9U, 0x3f3cc7893da865ceU, 0x3c9b7903bd89f521U,
  0x3cf407d03de5b5c7U, 0x3db396453ed731b3U, 0xbe0e3a543f113318U, 0xbed9dad03f1559fbU,
  0xbec9410e3f509a9bU, 0xbe659fb53f7f90a9U, 0x3e3aa75f3f1acea4U, 0x3ea6c4303e6b5cb7U,
  0x3e202733bdeb4cbbU, 0x3e2d54cabec54a62U, 0x3f108863befafebeU, 0x3f6377dcbf1ffc3aU,
  0x3eebc1ca3e5f78f8U, 0x3ba36cc03e179870U, 0x3e2818173e25a9d9U, 0x3e4caed83b01d687U,
  0xbea34325bdd6e151U, 0xbef5e1213ebd4260U, 0xbeed6bd83f02a917U, 0x3e1d46733f831990U,
  0xbd9937843f4ca356U, 0x3db137d33d3677baU, 0xbcc8277b3e5fdde3U, 0x3e1a5a0dbee3a3efU,
  0xbc9ecc92bf92fcb8U, 0x3f13d485bf6fb1c3U, 0x3ed7fbb53eb0c976U, 0x3e57b30f3dcfe41eU,
  0x3dceb8803cdba042U, 0x3e81a94fbbbd3842U, 0xbc1991f03e1b3a7eU, 0x3dad20ae3c60f789U,
  0xbeb6039ebda4db3eU, 0x3cfab5d93db4a4deU, 0x3ec93e313e245c87U, 0xbd90402c3db7f122U,
  0x3ecae729bc9856ecU, 0x3dba3f073e4f3964U, 0x3e816ff2bd86054cU, 0xbc8e8498be7718b6U,
  0x3eec6c753e19a992U, 0x3d2146033c6875dfU, 0x3dde93a03d20107eU, 0x3e8359263db08ed9U,
  0x3e545de33e1837b6U, 0x3e047e113c18a9e2U, 0x3dad2259bdf1a372U, 0x3dfc2720bf3266f9U,
  0xbdf70c6ebcd1e9b4U, 0x3ec1bb623e82fe7bU, 0x3e058835bd818e5bU, 0x3e21ebd7be6d7b3dU,
  0x3e5f2f0bbecef04cU, 0x3e18543abe01344dU, 0x3e29f4c2bd910c6dU, 0x3e989570bafc2d53U,
  0x3e5d47a63e39118aU, 0x3e64b52b3e214cc7U, 0x3e10b7d83db18ed1U, 0x3e23cb193d6c2742U,
  0x3ecc586dbc8fe607U, 0x3ebb79df3e9343e0U, 0xbe7c80023d9511cdU, 0x3e6152ef3da3e880U,
  0x3df042ccbe830cebU, 0xbd2819eabe6e605cU, 0x3ebde2d1be7e8739U, 0xbde5d26cbeac2335U,
  0xbe69c923be2a9aebU, 0x3eb9b9cb3e85d0c2U, 0x3e9b71dd3e503d1fU, 0x3e8a90db3edb1999U,
  0x3d9caa433e1e99e4U, 0x3e5ac78b3e838dacU, 0x3e351fba3e9cb9b5U, 0x3f35226a3e9c3caeU,
  0x3f29fc073e1b92b1U, 0x3e51b681bdb21e5bU, 0x3e953489bc99f009U, 0x3d59013abea51b31U,
  0xbbc590adbe370e7bU, 0xbdb7d843be4254d5U, 0x3da7e226bcbfd8b2U, 0x3e494d013eb5bfceU,
  0x3e9ebbd73da566d4U, 0x3daa21113eab5eafU, 0xbd220b443edae248U, 0x3eb0060fbe2bdf4cU,
  0xbebb40f93e98594fU, 0xbda3cdc03e9b29b7U, 0x3ce1d3643bfaa1a1U, 0x3df3a24d3e1d5918U,
  0x3e29c55fbe2e4924U, 0x3d1ef2f8be0c28efU, 0x3cc821e4be5e7e36U, 0x3e058c21bea80fddU,
  0x3d7b8e42beca85ecU, 0xbe4b21c0beb06135U, 0x3e75307f3e0231f9U, 0xbc3b56253ee08035U,
  0xbee2f5463eae99ddU, 0xbeabb7c03e74d16bU, 0xbe0e1c2e3c67b91fU, 0xbe979b4dbd9d8d97U,
  0xbda378e13e3fb71aU, 0x3e7fab633e0a2172U, 0x3e54f35dbe9e05ceU, 0x3cab41a7bf3874a2U,
  0xbe29eab5bf171d36U, 0x3e0cc7fabdbc082dU, 0xbe815a36beee1c78U, 0xbe70248dbd797c7aU,
  0x3e0487503dad95deU, 0x3e0b7b4d3f374138U, 0xbf0765073f110ea6U, 0xbe8984ec3e77b862U,
  0xbe5a1f6ebe930769U, 0xbefabd0d3cbe5054U, 0xbeb44b00becd89a9U, 0x3ded4b66bc2dba9eU,
  0xbd371d59be3a64fbU, 0xbddeb9923d114448U, 0xbe8515e5be5fca00U, 0xbe01ed64be789801U,
  0xbf27405abf41bdeeU, 0xbea787b5bda671bcU, 0x3e8b6b573e170704U, 0x3e86488dbc23c6afU,
  0x3e84608b3de0bf71U, 0x3d7cc6cfbefbb837U, 0xbdf4e73c3ea785e0U, 0x3bd3f09ebdb303b3U,
  0xbe9449b53e19ead8U, 0x3dcbfd903ec178e3U, 0x3e70c85a3eb0db31U, 0xbe3fa7723d9437f3U,
  0xbed8465cbda7a32eU, 0xbe539240bda42e53U, 0xbf8194e2bf022b52U, 0xbe83c3a7bdaa8ff6U,
  0x3e50e53e3e4ac38fU, 0x3e94f2ffbceae013U, 0x3e93f8bb3f130456U, 0xbe0c74293dc9d32bU,
  0xbe9ad76a3e2b2c1dU, 0x3ec52711be9e9ddaU, 0xbebf7cc0bc3db057U, 0x3dc2dcdb3e87aedcU,
  0x3e89bce03da6597eU, 0x3c8579ea3ce757d5U, 0x3d65f045be395d51U, 0xb946ab103e93685cU,
  0xbefc350ebe752e60U, 0xbe6a52debedf7b31U, 0x3e721ce33d4c9e42U, 0x3e095d983f1d16f8U,
  0xbe8f00953f2b55b7U, 0xbf150ba53f43433dU, 0xbf3aafa33f81bfd0U, 0xbf48c0993e99c276U,
  0xbf844c18be86a74aU, 0xbe8a9f453efe5046U, 0x3e51c00abdc1f5bcU, 0x3ea7b960bebc90daU,
  0x3d375d99bec44a0dU, 0xbd0fba44be92192cU, 0xbbbd2098bec589faU, 0xbf057185bf06a35aU,
  0x3e249af4bc7b9b5fU, 0xbdec27b7bd662120U, 0xbe120669bd02ae4bU, 0xbf48f4b63f23631dU,
  0xbf019c3d3f3ff2e4U, 0xbf82667c3f489dadU, 0xbfd98bf43f7712aaU, 0xbefe02603e057961U,
  0xbcb78daabdd5adf3U, 0x3e1db670bdcbc8cfU, 0x3dfef1cc3e7475eaU, 0x3dc2f9b53e0a2ba2U,
  0xbe748dbf3d8f518bU, 0xbe5d0a05bd8001a8U, 0x3e9016de3d6413d9U, 0xbca4e4c43ec1a140U,
  0xbe79bb823f09547cU, 0xbf8abe123e72d758U, 0xbf1afd5f3f06c245U, 0xbf6191603f4093cbU,
  0xbf8d305d3ef1e554U, 0xbeb075283dffd721U, 0x3e476f56b9f3f128U, 0x3d816cf4be17a1c6U,
  0x3b9975cfbca1600eU, 0xbe0b1db2be5b04edU, 0xbe82fff83f149d0dU, 0x3e93295a3e2386caU,
  0x3e89ca763e718b0dU, 0x3dbee2c23ef783e8U, 0xbf001f213f6541f8U, 0xbea50a1f3f35b89bU,
  0xbe9ff96b3ef38fb9U, 0xbdfdbd583eeb5785U, 0x3cb61e693e848c80U, 0x3ed8820c3caa2ee5U,
  0x3e479aff3e6845dcU, 0x3e16ec78bea0d6fbU, 0x3e5602adbd2c6f9aU, 0xbec250f7be8b1fc1U,
  0xbc67cba43d96243fU, 0x3e420f063d7167acU, 0x3dd231683e0b0a16U, 0x3dd9eaf03dd23bc2U,
  0x3d8deb213f0631eaU, 0x3f6638e93f95623fU, 0x3f6d46c43f148b6aU, 0x3f7285413f11603dU,
  0x3fb5a9f33dd8ce6eU, 0x3f9784ac3df5ea67U, 0x3f2ab7c6be2e02e9U, 0x3f1f75d03f180d66U,
  0x3f0ba98e3ea220dfU, 0x3e9991333e6268ddU, 0x3ed739da3ebb9141U, 0x3e3295cb3e5eb936U,
  0x3db7498e3e32291bU, 0x3e3f17df3d929df4U, 0x3f0111513e3f7ab6U, 0x3f692f963d5eec21U,
  0x3fcd2b983e1782a6U, 0x3f8605423df12f78U, 0x3f92f0ed3ded2737U, 0x3f5226ef3da0c577U,
  0x3f8780fd3e7654fdU, 0x3f8a781e3e8f7497U, 0x3fa741eb3e22285eU, 0x3f6b85b03e61ddb1U,
  0x3edb78353c9921a3U, 0x3ea1044d3e37161cU, 0x3e3cfa7bbc6d6388U, 0x3dbf27d43ccd60adU,
  0x3d87ae553d96638dU, 0x3e0848143e00b492U, 0x3e0d0b553e6733e5U, 0x3dfae564bd34a0c0U,
  0x3ce501d93e8bff31U, 0xbd19bd42bdbd3e93U, 0xbd4db3393e0268d1U, 0x3dd1df133ee2a0e8U,
  0x3e91998c3eed2d12U, 0x3dd8c7f33e7968b5U, 0x3e1cd304bce6f320U, 0x3e15241d3cc3a2ccU,
  0x3c38d79f3e23e075U, 0x3e4b008f3dde3b42U, 0x3dfbdfd33e02c6e5U, 0x3e7f77b53e6bc877U,
  0x3eeddd85be732193U, 0x3eb1c9f0be37df7cU, 0x3f217255bd0f0d0bU, 0x3eb67a3fbeebd2d9U,
  0xbed093bebecc44ebU, 0xbde527903d6aa457U, 0x3ef3a9623e933fccU, 0x3d938bac3e2bbb23U,
  0x3e572d0e3e8dbd32U, 0xbc916a9ebd3b3fe9U, 0xbc76ede23db72af9U, 0x3e4573e83d9f83a1U,
  0x3e88d745bec1bad9U, 0x3ebc82b4bf1148f2U, 0x3ef58fc0bf833514U, 0x3f2614bfbe87411bU,
  0x3f8acf0cbccc3f1eU, 0x3f1405653d71ff2bU, 0x3e8d8a6d3d3d6049U, 0x3ea2abacbe0d2e51U,
  0x3eaa468c3dd90ae9U, 0x3d9d8c053eb665eeU, 0x3e880eaa3e9a3e47U, 0xbe4be2adbdfcf1b1U,
  0x3dd220503e86e2c2U, 0xbb08de4c3d26fadfU, 0x3e0585713de5071eU, 0x3f0179893ec21bedU,
  0x3ec8b6323d008c44U, 0xbe38c661be482e9aU, 0x3e82d264be77baafU, 0xbd8099b1bdea2fe7U,
  0xbe81e0133de15ed5U, 0xbc9c8fa63f0bb02aU, 0x3e5533843ee8c14aU, 0x3e09cda13ecce48cU,
  0x3e8bf49f3d99b0a5U, 0x3c09ba59bec30360U, 0x3dac39573e73e7ebU, 0xbd0d46d43f6d0c3aU,
  0x3c65a14c3f4a9710U, 0x3f18e235be71e217U, 0xbeb29b30be5c7f73U, 0xbe6ff9e7be90e2d1U,
  0xbdfeafdf3e5d9a4bU, 0xbaa17ae43ed2c4b8U, 0xbde92b9a3edec1beU, 0xbc4ac04f3f1a69c3U,
  0xbdfe31ce3f335915U, 0x3d9493af3ec90bceU, 0x3e900b4a3ea346a0U, 0xbe6f3608bce6e0f6U,
  0x3e5bfa0e3db04cfdU, 0xbda79b093f8af609U, 0x3eaa2e4e3f254ddaU, 0x3f0cb0aabe136c77U,
  0xbe825ae6be4ff02dU, 0xbeaba077bee36095U, 0x3e2a04dfbf50ea44U, 0x3f2a9fe7bef08614U,
  0xbd40ec2fbee53104U, 0xbe561caabe3d7df5U, 0xbe4b47ce3efaa17fU, 0xbe93fc1d3f0fce1bU,
  0x3ec790143eb570ffU, 0xbe734d1abd6c8bc2U, 0x3e3e919b3e4f3eb4U, 0x3e8972723eb9d15fU,
  0x3e1dcfc33e96b8feU, 0x3ed1c5b53de7ad48U, 0x3eacecb93bb0aefeU, 0x3ee299a5bf633f39U,
  0x3ea5c893bfdc03f0U, 0x3f0aaafdbf42fbecU, 0x3db64fecbf1ee9b2U, 0x3c6300cbbf332b37U,
  0xbe5f5444bf40f33fU, 0x3d27e070bedb9458U, 0x3e7023003cef578eU, 0xbcb987343e95d9c5U,
  0x3d937f023ca55735U, 0x3ea34a4fbe25f027U, 0xbe21ea22bd1c606dU, 0x3e8ddfb83da4ed9fU,
  0x3f02f1683de6ff8dU, 0x3f4152bdbf64191bU, 0x3e269519c007a43bU, 0x3f1ae1f0beb13685U,
  0x3e75dc74bed0eb76U, 0x3e0fdeb2bf14b4a1U, 0xbb2cdc1fbf2ae0e7U, 0x3ea70ed9bf0c3703U,
  0x3e7dd7cbbe784a2cU, 0xbe398dacbe661af1U, 0x3d4c50e63e395bdeU, 0x3dab2e68bed0ff52U,
  0x3e4e39013f38a185U, 0x3e2eab0c3e1e738eU, 0x3f09f801beae3ddbU, 0x3edb9c37bf6d6057U,
  0x3e1eec98bfc5c806U, 0x3e71a25dbeaef809U, 0x3ea4eed8bee3710dU, 0x3dafbb60bf0ad297U,
  0x3e56e4edbf50bb2cU, 0x3e622184bf877fbeU, 0xbe23e597bf1cc7d9U, 0xbd1f74b3bceb614fU,
  0x3e3283f53e241b2fU, 0x3e284b4cbf1a0a57U, 0x3eb1bcb33e52e6dbU, 0x3e843b723edec306U,
  0x3ecbd92cbe661a1fU, 0x3e9ac1bbbf700010U, 0x3ebf3b18bf494a22U, 0x3e937f2dbee4dfa3U,
  0x3d8af7fdbeb8049bU, 0x3e00ac7cbe35bc8fU, 0x3e16750cbf383a24U, 0xbed08bc3bf8a39e7U,
  0xbe3f64c4be270fdeU, 0x3efc05513e607885U, 0x3e26b55c3e265157U, 0x3d888e0e3c19b8b8U,
  0xbd94c38f3f52dd73U, 0x3ea867c53e1eca54U, 0x3f50ed85bd064d49U, 0x3ea70e453e18da15U,
  0x3e97f9cbbdcf1c52U, 0x3e7c24d6bf0361a5U, 0xbd0453c4bf1e8782U, 0x3ea538c8bea60276U,
  0xbcb993563cc51604U, 0xbec54dda3cb54143U, 0x3d089a0cbe8a5bf2U, 0x3eba81e73e62272eU,
  0x3de2639b3e213c49U, 0xbd7e1c193ea9c271U, 0x3ed446fcbde3994bU, 0x3edcc1973d29371aU,
  0x3ec90ae83e208b7fU, 0x3dac678c3c1e57d4U, 0xbde733383d843538U, 0x3e4ba384be11f4c7U,
  0x3e6869fcbec40c05U, 0x3d4b1b4cbf724815U, 0xbd9a309cbec08742U, 0x3df9f424be9979a4U,
  0x3d5cc312bde8f739U, 0x3d8fedc23d9e2b19U, 0x3df42a933e435612U, 0x3e3fdb773e428db1U,
  0x3f0a668abe52b178U, 0x3f52d5a0bed13262U, 0x3dbcf250bed2e461U, 0x3dc780b7bec21ee3U,
  0xbd8d23d7be085704U, 0x3d8de6c63e160e98U, 0x3eab7949bf343d6bU, 0x3eadd8acbe97c83dU,
  0x3f0bac253eb37bd6U, 0x3d988b4cbeee0d6eU, 0xbca5efbbbdcd7b50U, 0x3dc86bfb3e30596eU,
  0x3e1f6b9f3ca13939U, 0x3c2e2d4a3de06947U, 0x3e6e721d3d11f0e8U, 0xbcd922c63d41fb2aU,
  0x3f377b2b3e4b0a80U, 0x3d9426063e3298bdU, 0xbe9115cd3d9e5865U, 0x3ecfa818bd4cf080U,
  0x3f1215be3eafc328U, 0x3fa365c63d1b8717U, 0x3f98b30ebcd68cbcU, 0x3f2c1a433e885a64U,
  0x3cce30b93d62b48bU, 0x3da954ca3d71e3b0U, 0x3f0546e63e09f777U, 0xbd0c209d3e33b8e7U,
  0xbf3308b43dfabdaeU, 0xbeb19914bf250146U, 0x3e9527883e70f273U, 0x3eea778abf244959U,
  0xbeee61d03f388b2bU, 0x3f4c6fb33f64d4e5U, 0x3f1646abbf68345bU, 0xbf4573763f35099cU,
  0xbec53db4bf060187U, 0x3eda60da3f42b346U, 0xbe33d7cfbeb67626U, 0xbec7aa58be6c903fU,
  0x3e6628bc3ca64914U, 0x3e1029c5bf473b16U, 0x3f48a65c3e8843a8U, 0x3e81cd46bf187ef2U,
  0xbe92eeef3f06954bU, 0x3e8595c0be7e256eU, 0x3e6945cb3f081a2eU, 0x3f020d21bf22d83cU,
  0xbf8b56cdbf438ea3U, 0x3f3708c73f6b303cU, 0x3d1885e03eb66844U, 0xbe90f5683e45366eU,
  0x3e9e6ff8bf5f6624U, 0x3f0d2d803f24838bU, 0x3f1bbdcd3ebcb043U, 0x3f4ef5a1bf39ddcfU,
  0xbf0fce5b3eeb5f54U, 0xbfac4f6fbe259602U, 0xbea3802ebce2cbf2U, 0xbf14f921beff0695U,
  0x3dc4a8f53eff2c5aU, 0x3d3676a8be2dc570U, 0x3e90f8a13f3ee1a5U, 0xbf17b45abebbf9cdU,
  0x3edc98cbbf0ead81U, 0xbf3c87f23f0303abU, 0x3f2942ff3ded9257U, 0xbdf15f2c3ebce733U,
  0xbf1cad15be0966a1U, 0x3f117fb0bf7c1b24U, 0xbf27bf043eeff3c7U, 0x3f3ae6d93f316f99U,
  0xbf025fff3ddd73e3U, 0xbf13bd123dd63751U, 0x3d85dca43f0574afU, 0x3ed0e954be17d6c3U,
  0xbee7fcfcbf29839eU, 0xbf0677dbbf3580b3U, 0x3e10fc7abf42fcc9U, 0xbe56b5d4be890115U,
  0x3f3d89ccbe6a5582U, 0x3f0003ef3e1d5e0bU, 0x3f17fed0bf1d340fU, 0x3f820d583f387d45U,
  0x3e0a68453ea9f01aU, 0xbd528116bf03dc9dU, 0xbe9a5638bf04a4b4U, 0x3e8e50acbeb3144cU,
  0xbd71fdeebe734c42U, 0x3e3dc295bf89c978U, 0xbf6207b2bea517abU, 0xbe55432dbf2649b1U,
  0xbebf8d993e6aab94U, 0xbdd2df91be9c4b5aU, 0x3f0ef4893f5cfb3aU, 0xbed704c93e833575U,
  0xbf26f2ef3f639042U, 0x3f0f7bd93ebd64c7U, 0xbeae4f8e3e2a07bfU, 0x3e32d109bee985d2U,
  0x3efbd7e2bf0c5c9dU, 0x3f0a5e9d3d83aa72U, 0x3da487d93e408890U, 0xbf856fcd3e89e206U,
  0x3e6f5728be4391cdU, 0xbe8c019bbf638ddaU, 0x3e93e4443f2016aaU, 0xbf020bc73d4f2c8cU,
  0x3e48323e3f09f547U, 0xbf097d193dfaa5b2U, 0xbf711238bf395a68U, 0xbf0c44cc3ef2ea1fU,
  0xbe23caa63de188b7U, 0xbe5afa3f3ec03b0eU, 0x3f2c1b743e9a7110U, 0x3e8a90e43d938ee2U,
  0x3e8489bcbe734ef4U, 0x3f084a1dbeba6783U, 0xbe57bf06bf660f0fU,
};


ai_handle g_mnist_weights_table[1 + 2] = {
  AI_HANDLE_PTR(AI_MAGIC_MARKER),
  AI_HANDLE_PTR(s_mnist_weights_array_u64),
  AI_HANDLE_PTR(AI_MAGIC_MARKER),
};

